#map = affine_map<(d0) -> (d0)>
#map1 = affine_map<(d0) -> (d0 + 5)>
#map2 = affine_map<(d0) -> (d0 + 16)>
#map3 = affine_map<(d0) -> (d0 + 8)>
#map4 = affine_map<(d0) -> (d0 + 6)>
#map5 = affine_map<(d0) -> (d0 + 28)>
#map6 = affine_map<(d0) -> (d0 + 4)>
module attributes {torch.debug_module_name = "ResNet"} {
  memref.global "private" constant @__constant_64xf32_2 : memref<64xf32> = dense<[0.230717152, 0.253822476, -1.05429808E-6, -0.664388895, -1.65705547E-8, 0.161521927, 0.454503953, -4.301950e-07, 0.300513744, -8.005240e-06, 0.349418074, 0.311480612, -0.249529764, -3.474890e-05, 0.107726313, 0.218970656, 0.381412596, -0.529882133, -0.628644109, 0.571398079, 0.299846917, 0.584303737, 0.48202154, 0.328526348, 0.196717009, 0.194961801, 0.152145416, 0.085522361, 0.513142824, 0.0152367353, 0.166441768, 0.332394391, 0.249211237, 0.443366677, -0.280169278, -0.0203848016, -2.45068748E-7, 0.321340501, -4.9151744E-8, 0.237767309, 0.232907727, 0.315274626, 0.427762389, 0.293127537, 0.263794243, 0.675975859, 0.429100394, 0.345662743, -8.69090186E-8, 0.247294366, 0.303160846, 0.615772783, 0.39834857, 0.332067341, -0.412187815, 0.378069043, 0.178953409, 0.25747788, -0.449079722, 0.213058949, 0.569339037, 5.727430e-01, -0.402383476, 0.23406373]>
  memref.global "private" constant @__constant_64xf32_1 : memref<64xf32> = dense<[0.234872743, 0.266257942, -5.10959595E-8, 0.518699706, 3.44040196E-9, 0.222385287, 0.422887057, 1.31532403E-7, 0.25093165, 1.5152026E-6, 0.316871643, 0.250491828, 0.378926098, 1.08618351E-5, 2.752640e-01, 0.236741036, 0.242021769, 0.395314813, 0.469346285, 0.2908957, 0.272684187, 0.27802828, 0.290692091, 0.206927493, 0.258990377, 0.278710574, 0.291149527, 0.316013753, 0.388891488, 0.304111898, 0.267757207, 0.210925162, 0.287084132, 0.332426429, 0.42672804, 0.373260558, 7.48037578E-8, 0.19067812, 1.47401256E-8, 0.223029822, 0.179079413, 0.248600766, 0.27399528, 0.259228647, 0.294202209, 0.299236417, 0.223688841, 0.262799472, 2.20011476E-8, 0.266098082, 0.220890298, 0.284285516, 0.330723315, 0.226809531, 0.365380913, 0.21229881, 0.239653021, 0.24949576, 0.525830686, 0.248247579, 0.295652747, 0.258776665, 0.4832564, 0.26670444]>
  memref.global "private" constant @__constant_64xf32_0 : memref<64xf32> = dense<[1.01694489, 3.71674347, 5.81334356E-11, 3.28254271, 1.71074404E-13, 0.658226967, 4.37006235, 6.60045282E-12, 0.915522992, 1.93175254E-9, 4.12558556, 2.74399233, 2.8390913, 4.79658588E-8, 11.0722713, 0.500745952, 2.23128176, 4.82570696, 2.69861364, 9.36995506, 3.73391747, 5.48429585, 5.7126689, 0.445444882, 0.436275303, 7.15633583, 13.7179089, 5.25117493, 6.81737518, 1.67235756, 1.65343034, 1.23245978, 4.90762854, 3.07305121, 4.23838568, 4.99363518, 1.44646307E-12, 1.52116203, 1.03519833E-13, 0.351344079, 0.17024748, 1.42054474, 1.90848303, 2.15124035, 2.66084933, 4.84443378, 1.92971194, 1.49994361, 2.94806145E-13, 1.53064024, 0.365027189, 2.93755412, 5.46641159, 0.707924544, 3.33150721, 0.771802961, 2.40678358, 6.5213666, 4.12625027, 1.05063522, 2.95303202, 11.3656216, 4.76904678, 1.65587807]>
  memref.global "private" constant @__constant_64xf32 : memref<64xf32> = dense<[0.00276811025, -0.0257689245, 2.12544663E-7, -0.0846051499, 2.11205915E-8, 4.96906461E-4, -0.0224083271, -1.15818956E-7, -4.823850e-03, 2.75073347E-7, 3.958230e-02, 0.0319936387, -0.0374896601, -1.37163477E-6, 0.00660019321, 4.378190e-03, 0.0647971481, 0.11175999, 0.0360015705, -0.0750752166, -0.03824009, 0.0843578502, -5.228700e-02, -0.0117988894, 0.00130188058, 0.0321722962, -0.0177843049, -0.0910085887, 0.113187239, -0.0416320041, 0.00873024761, 0.0296931695, -0.0705021694, -0.00348469778, 0.109771468, -0.00173411821, -5.94229412E-8, 0.0293303896, -7.85527287E-9, 0.00673204474, -0.00370999542, 0.0160279572, -0.0278826058, 0.0265925378, 0.0284745526, -0.12734659, 0.0446168408, 0.0263288375, 2.14538591E-8, -1.704500e-02, -0.00356168114, -0.0458412617, 0.0638761446, 0.0152198272, -0.0385114551, -0.0164278317, -0.016568929, 0.0560574941, -0.0803062319, -0.00266457512, -0.0417176671, 0.126112729, -0.0492369682, -0.0132609205]>
  memref.global "private" constant @__constant_64x3x7x7xf32 : memref<64x3x7x7xf32> = dense<"0xEBB52ABC350DC9BBFF35EDBA7546993DF9E4673D55F28B3C02FA4FBC3D94353C8A191C3C5D21E1BDC99D8FBEA6DF8ABE362C04BE8C42753B0B85E3BB4707723D7249973E7A52163F4C0C053FEE3C833E5232823DB4E4F93CBE4089BD60C998BE1A9AE0BE3AAD8ABE84A520BA12F06B3D9A90E1BCFB70833CADAC943DB0995DBD3E6BAABEAF55D7BE4E0084BE36C7FA3C68C5273D54B7803D10B5743ED4E2D33E8784C93E390B2A3E800D61BCD3D070BB8F4CC5BC90EA86BDF6501ABE1168A8BD717DBDBB81BB3ABC3D10DABC8FE30DBDD8C7163D6134053D16982D3AFFE3D2BCE1213B3DC3A3093D7312D6BDEE219EBEB103A0BEDF5B24BED71BA8BA0F7E5BBA6790C93DACE0CD3E6C35453F2438353FAEDCBC3E0E16FF3D4A74BFBBF2B303BEB466D7BE19BB17BFB604C4BE75B22DBD842E7C3D6F1265BD4D2DABBBF9D7DD3C90391BBE9A6EECBE272012BFB525BBBEA798063D00A2633D8E1FCC3D30E4A23E8CDE0B3F8C2CF73E62714B3E9FD6AD3BC357DB3BEA588DBC41F68EBD03C817BE74349EBD26393D3AF22205BBCF1A16BC7DBFAD3CA0D1B73D41A2B63D3DDA093D08ACA4BCBA487C3CB6C398BCE9ED00BE584F97BE58C081BE16EA04BE7E2CE5BCCF4E213C56E5483D89335E3ED335DC3E238BB23E24ACD53D5FD6963CDC7BD83CEAE8D4BC87B649BE2D3F89BE4F88D7BD10EDA03D2258F73D0B4BE8BC7DC4963C7C07CA3D6CD87A3D586FF0BD90E483BE10371EBE361EAA3C75442CBBE1ED1ABD2C516B3DB134773EAF4A793EAD93F13D93C7433A78A04B3AFFA924BC9DE761BD9C3718BEF4B6F0BDAE141DBD79AF90BB492F85BB99054F3B4450B4BB11A917BDA417CEBCE06144BDE52A523D0EBC5A3D70BBA43D4FAEEB3D6B46143E0A4D123ECD28FC3D4C4FF0BB52930E3BE8ED193DC0265E3D97F97B3DF780A43DABEDEF3DB4C070BD2C5CA0BD6F235EBDF31FC0BD9EC3EFBD89B48BBDAA64B13CB02ADBBC7BD9FBBD05CE0BBE3F051DBE840E10BE8176E4BDE7FA4ABDC7B4C03C4DA08DBCBB3A36BC482C02BC01389ABC8F08BFBC8572F1BCA704EB3CC76DB13C8F26443D6777323DB2E0D03CAAC6103D07CF383C3BFDF5399B1B473CBC2C2C3D266E743DD0103E3D7792253D63916CBCA006323DC3DB8C3D24DC073E5E7E5E3E5276923E23C1893E9C5F563EEF036CBD187BB9BCA73DFA3C938D9A3D31EE0C3E6B58293E80C5373ECE261ABEE42B39BE8C7026BE69C04DBEA4EE36BE606DC9BD50DA893C5185DDBD0A2A81BEB44798BE2EF9A4BE4BEF91BE69175CBEA359D3BDA5BE263D773A06BD54F281BD65A8A8BD6027BDBD001B8FBDF7254CBD90DDA93DE35CB33D3C15CF3D2C849F3D14EB573DC7B9793D23BF283DDE4586BC9D3F63BC160CAD3B2A5B373DAAFC323D0305BA3CDC583CBD18FF073D68162C3DAD7CBF3DA92C3E3EB1F2853E27366B3E10F12A3E005D3CBD0B1086BCFDA2DB3C3778B63D151A193ED454073E6F0C0B3EE79EC4BDDD14D3BDED36BABD6647D5BD9784B9BD6CDA5EBD4A7DE73C99B893BD6E8F41BE2B816FBEF26D73BEADF142BE41D61FBE11989BBD048E513D217AD3BC4C0B8EBD7C0190BDC3A871BD5D1C7CBDA37F36BDA8D8E43DDABFA13DA0DB863DBA1E2C3D0E81013DE49CCE3C0453F33BC81898B3B1188AB3447F9EB3B975CCB30F74D2B3FE2CEAB32725B3B37206D2B123A60D31F2050BB2D8C026B32D1056B3F7453CB367DA51B185849A336562A233729D7E3384DBAA32F18427B27F8196B0DF49363314A1A633B7E06433B0A206339D1A932FE63737B30A976DB39F89193160EBCD331996D733F567AB33B57D2A33A03E96B231B94CB335E563B23A8E0A34A0801E3452A73B34C11F393442150E34693EE433D764C83374D80634E7801234D8E6453474E5663423C46534D7273E34835138342D4208B4C674CEB35EBBDEB3C1CAF8B31D94FDB3B8E70EB41559E8B3A19576B32138D7B2965701B33C5A79B35C999CB302EE8FB301E9C1B2325FBB328FC550338C1806332D1C8FB06A94A0B252BC08B2B8B92A331C53DF32A2ACDF32926B173051229EB2109F45B3D83E6DB3812F903138937033AC30A233931B3F3300C7AD31FB863DB3EEB280B30FBE9CB2A6ACA6333433D3334F84E033D728C83305E087336B723333CC244533D27D8033047C98334636C2332FD8FC33B345FA336403BC332840D433B6293CB3CBFA6332EB79063251022FB2F90CCAB14C34E1B2946D86B2A21933330A72E7338911EB339E26C0330313A4331870993340A0D133CF1BE03322163234D5142B3440D91B34E923113455D110345E9D30343597D23367E60E344C69F333B19BF633492ADC33224CCF331B5A1134CE17D433C7D62134E4B70634B9E7D733DDB4923352D99233181AF433A75AC43306C51134EC1A1434D7770E3433CAFA3333BFFB33668E1A3456898533C55FBD33B68CE03327E90A3463B0153429280F347D1F2A34EA4F08BC27998FBCBA3024BCFB9B97BBD605DD3BFF1737BCCD6D16BC0E17E5BC690BE5BC74AD5BBB9A78B8BC1FEF94BD333C83BD3AFC8DBC1C880EBD08BF95BC8A3FD1BC5146B5BDA2750FBEEDCC14BEDF3707BD634EE1BCC86BA6BB2D6BF8BB63CA27BDB3EA99BD5B3DD2BD464393BB0A8E19BDD08331BCC8051DBC7FF31ABB9F1DCCBCEE226FBD2CA5ED3BCA7909BC76ED9F3C7754913BB83AB13C82FE993CC48709BC80C5313C69D18EBC625087B7B675B6BC7F7DC5BBB132E4B9869C84BCAEBD79BB40FFC03CAB1C5D3B3414373C5694833CBEECDD3C32E7783C874CAA3C7048033DDE19A73C5BA9DB3CA0A924BC880F92BD0DBB36BDC1D1E13C2CED903CADBAD93C72B913BC9047CFBD8AAC2DBEAFE41DBE2DB7DCBB6224883CD62FE33CB33D3CBB988493BD3AD400BEC56602BE62C67C3CF411FB3B580F823C8CAEA7BB2C1D96BC00F854BDF3E187BD6465103D6FC8023D46481C3D30F9073CBA698B3CCEAC673C95C9063CCE5C623D2FB1DF3C90A5F23C3028253AEECA033C5857563C48DE893C0D832E3DC47B4BBDA8A602BDC91CCBBB5BF3DB3CB5A1673D720B2C3DA190673CF7FBBFBBC2F3B63C0E8E613D16F94D3DF04A293CFB69103D0270963D68FC21BC640BE13C192A7D3C07B82FBD2507C2BDDB2FABBD0C4B003D8DAECBBBFB07D83CE6ABD53B42C4FCBC4FED99BD3F4CAEBD3C70D13CD8F284BC4358E23BB65BA6BBAFAAC13B7312C4BC144925BDF8C83A3D79E2AABC3ECEFCBA50969ABCD7ADCC3B4B2F383BCBD833BBDC60223DE357D7BC6E5510BCCB9EE4BCB9175EBAAF6CB83BDAF2243CF77CF53CD5C11F313E55893104784631EE98D9318F953531C9C8823039E0B9309E54A931C7F8D53168749F31E565243299029331B9278D31897B1A318A9E8F3168A1FA319FDA10320865CF31DA33F331289EAB31F5A4E53143893C3110052B326F74E931143ECD31A8C590312D6B1C316B5AA531A8441531C5D6AB31CB23B5313D36FF319AFADE31D23FEA318B4F9A31D347763142A0A631B81EF031B4ABCE31F8D10F321110D2313B06833184C9653116C5963194C699317474BA31633BB1315278CB310D589931AB32AA31281B9B316E1111329D30C131727AB331701EAF31ADF39B3195630732E90F2732071B17322B19AC31A2461A320F60353291BAF63197EC85313D7E0632C2BCC731E1D82A32BB661732F70B3B32069F1432B2FD1C31E7023B31CDB7A931BFE380315A8BDD31389ED23130BD0132C5A1AA2F7CBB9831E19F2F31C34D0531FFAAB43164CC7D317AF6DA31A164A5B0ADB1F830AEF47C3191725631C4649A31E7E59031738B653191F244302B10AC316BDF43318D5CA33181063731AAD701310A07F0AE23FD1431CF292231E7096831212275309133773190BC9F315F32CF31816F8131DDF53931F3F1A131818F85316B8F9331F9E88731680BD5312C670B312C4237B05E5FAC2E7C923731A0B3C031FF060232D2B7E831F46217B2AD6240B211190EB2084DE1B1639009B186C98AAF51C46230749518B243A757B2304943B2088326B2CDAC10B2AFF9F4B1689AD3B126B3B6B1ACDD1AB22CF851B2D96431B2D2543DB2A29C1EB26573D7B109EEE6B1F07C22B28EAC45B212362DB28B5336B26883E1B1D362EEB1C586CFBCFDFD4D3DB637C03C555F7ABC2C6D75BDE173DDBCC3CC0CBCD043593DB980313E200BC83D429DADBCF9EA3ABE1943FABD6224A6BD8DB8453DF9718B3EF4653C3E698A85BC084B88BE54AF60BE441715BEEB70173D8023B53E379BA03E24FAAB3C954C9EBE72D2A2BEEFA054BE32B1563C8215B03E9D55D43E39B3A93DA05B8ABE5473A9BEC6E174BE2D45ACBCC350793ECF7BB53EFEA32D3E639A11BE2CF565BE21BD4BBE8B94EBBCF5FD2C3EFB27783EBF48323E95AA48BD02FFE5BDB1E424BE48F21DBB19D11EBD5E258BBB2F7C2D3C4A45123D9890CB3C0C2B473C6D16BCBBA3D8CDBC5BD2C5BCB2BACC3C08161C3C71A8213D4399E33CCB3C3DBC8C26D7BC10EC4ABDB779E43C2D6C8C3C26B41C3D9B86A83C77EE9BBCA6E81CBDB7C272BD96C0113C2BF4153D2959E43CA1DF253D43578DBBA8685DBDC617D0BC6D6AA7BC72131F3D7E8E62B9A041CF3CB915873C019485BD025216BDD45F2DBCE0F2D53CF04C523C89750B3DC36A023C6A8E49BD0AD045BDC0458BBCDA84A6BB12843E3C3444DA3C3994A43C13AD26BDFF2BF9BB452A30BC3DF3223DBDA336BC9D11C9B9768095BCA6A1F5BD0A7DB4BD5FF4C33C4091CF3DF48A083E553BC43D2FEF69BD5CA44DBED5AA42BECD218F3C83F2433EACDD4E3E6398E23D39F610BD01658ABE4E8591BEA717D7BCC401913EB765903E380F493E891056BC48B495BE5AFEA0BEDC8605BEE0F07B3EBE01893ECF745E3E941E223D3A4462BE0D3C8DBED09B2EBEFB24FA3DA8D4393E1C79553E5E6F423D951E09BE5CB13FBE292114BEBBE3883B4AF7AA3DD4DA1E3E9A2684BDA2A60FBDE89F07BDAF6B36BCD160A2BC898B18BD01F7A6BD95096EBDED1378BD40E62BBD6DE51FBC0BE472BC81694FBDEE7DA1BD8B784FBD3DDB19BD134D30BC7476683D74E79C3DACC3FE3B228CF3BCD711BABC8E0DAB3C08B77B3DA7656B3EC0498E3E2571123EFFEF2CBC11F633BD8606ACBBD8FE033EAE7CA03EE763B43EB870353EBC2A753CFCE134BDA38103BDF66C983DC208323EB460563ECF92DD3D5DF109BCA20D41BD711D1DBDD1B6B5BC68AFE93CE9090B3D448E753CCA8E59BCBD304B3ED8FC213E98E2013E3751BB3D3E9EAD3D0264083EDF9B433E9813133E9480873DF82CA43C38639CBD4C28B1BDD96F22BD7BD4AD3D1301EB3DC1E3943C62AEAFBDDA7B77BEECAA84BE5E8735BE189C05BB4D28B03D981A57BDE0BC85BE4930E7BE5894F5BEB4C3AABE412118BECC6E9D3D2F39C3BD42C28CBE852A07BF2A8913BF9E5BCFBE4E4825BEF5BFE83DC9ED90BDC34F48BE1906CEBED357DBBE6B839DBE2907F9BD708D223E4136CD3C3C939DBD6A2732BEF7FB51BE5A1021BE53B4B1BC988B24BE673CC4BD1BE8C6BD6E8D72BDEE5922BDCB019BBDAB0BF5BDD5F3A5BDCFE27DBCA9D4F23C56228F3DD947CD3D36D1473D19EAA53B8DC2A5BDB2B0C33CBE52DF3D788B233E4D32403E9D4D053E1862873DF0304EBDA618A53D865B0E3E6A06573E52E9833EEC1B623E1F6B003EBFA422BDC016C53DD5A3443EBEEE603EFA8E7A3E60E6653E92B8393E786A39BDEE6C7E3D75BF1C3E1129443E36F1793E945D453E24E5003EB037B2BD0E87E23C523ECA3D3ADE393E2FCF3F3ED501EC3DF5759E3DEC98B6B2B340E1B2EAB717B335243FB3706558B39A5F41B30F7454B387C038B3A78043B3A85853B34BE85EB3E83F70B309104FB3C2A648B38AB33BB33A7068B341AB5BB31D0656B3B4C837B338B10DB326E5F9B278FD3FB31AB335B35DF638B3157615B3FFCAF2B23F8198B2FD1263B2B7963DB3090312B3C6A000B3978C20B3D0CE0BB31D496BB2B694F8B1DBE848B3B4073DB3A6BDF7B28ADAD7B2728199B26D8B853120A489B0C7A93EB39B6E82B3059731B3C78F87B249B650B170DAB43185AC162F69278BB2406B7CB25592B6B2BFF9D6B29271E5B23BF9BCB2E899F5B296CFEEB239B0CEB2961AD3B23B61DCB24DEBF1B21970ACB2C06E97B20921E0B217D2DAB29C778DB2EF783EB29F3A3CB20CA50131C4DCDA3100B9BCB27FF053B2B24BA1B15274FD31F47E54326315C3329C3D1433C8BF99B2506456314653AA31E7F1CB31D7B55032B8A6F032E3C31A33788BBDB2660EEEB1E3BB51323166B23281FAE5322C573F3353652C33A1C8BBB2E5AD08B3D65801B212DDB0326DB8053319982D334F5B0A33BE01B8B29DA196B2C1577AB29469E6B299A9D6B253179DB2A800D9B2BEB80EB3A9A7E7B26D37F3B243C303B3F602C0B2CB4491B2E2E297B2809116B382C2FCB2A924D5B21E30A1B209D081B20EED45B2F0840AB212FD0DB38B2FCFB2465D8EB26C17DEAF4D3A6631F1C4AD317B393E325AC008B3187186B2D5BF11B2D45184B17BACB3B1BC677731A48F4532F9B822B3BB7CDEB2A9338DB108D00832AD900E325C299C3200028432F3151AB3BFEC3AB3204CB8B2229C19327421A53218B5CE327B71B0323113EEBC3109073D663CD1BC463BB73C7B70C2BC922DD63CDEE149BBFC06BDBC1601A43C9260933C457EA03CC758CABD17ABF33D22E0C7BC89CDD8BB1BA192BD8DF5333ED2B599BD9C0B19BE05E2683EAB56C9BDCDCE243D38946BBEF404E73EF6D897BEE61B0DBEB24DA23E59DB12BEC2E6813DCB1999BE4B8E103F19E2E0BE53C54BBD3065913E73591ABECB16C13C83D837BE6EACB53E56A488BEE065F0BCA662463E8823BEBD40BE37BDFD2A5A3C98EDF53DC74AB8BD2BBFC3BD69C0053ED6F004BD046FAEBC813B6A3DA0C21ABD46BD863CC52571BDA6787B3CB1BA833BDF1CA8BC2A243A3D16E4C43CC3E8B3BAC2231EBE3CBC073ED6E670BC35C62EBC9E8634BD2A0E843EE57124BEC5E589BE5B14963E8C35A3BD31B8DB3CF1EF58BEF365213FE5A6EEBEF32D9EBEAC94EE3EDCABE9BD9B864E3D9B008CBE30B5413FAEDA24BF454149BE5162DD3EF4E500BEC4E9C13CE79015BE27E7EF3E843BD5BE8AC505BE5BDD8F3E2B4589BD666157BD4B2F1E3D90EA163EE59312BEDCF024BED2D40A3E4642EEBC5A57E2BC933E4E3D6DD175BC0BA9A13C09B20CBD260AD13C885215BC307DBEBCDDC5B63B8DADA2BB7EDC1C3D007EB1BD3B2FC33DF4C5DCBCB94F96BBB7EA95BD37D3E93D240D2FBD101CE7BD1349293EE234A3BD88C2553D60EC5BBE8667B53E3A7965BE8D54B5BD2B48673E07BCD7BD28CBA33D92C68DBE4F3EED3E38B5B4BE3C6A6FBCC3C83F3E3FA9B8BDFF5E353D549F34BE32978F3E85A563BEC17436BCD073FC3D430562BDA84D1EBD142C7EBA1DD4C43D92C655BD7848A6BD80F6C53DCB34AFBC217F73B5448681B5B2BB6AB594C73CB5CD5923B5641E07B5FFF512B53B0927B5C74A50B5F0DE2AB5EEFCA1B499565FB4771142B326D309B454041DB591D735B5D71A07B5D3A04CB42083EBB37E9D2433C3A51C33A4D80BB5EEA31EB5EE8AADB4030283B333D32FB37190F933C9461534F0DA10B5D4F1FFB4656989B4549D8DB1D1CD30B3BBFD7F33F4CF8D338B8224B5D845EFB41E3FA1B45C9383B49DE58DB415A445B490061EB4C11D19B54B75E0B43BD79DB49C229BB42E108DB4732430B4877D07B45E051DB49EF81CB43202A4B35C1FC133B8CDE933730FBB33617CD2B298380B34C9188D333E451334465EDD345404DF3450970235F89BAB34791726343F121634A1C89834C507043557D3FB342FD31135863AF334FCFEF93347843A343102ED34D4F12635374A22354C163635C51A2A3519C264B36F5F15346A25DD3442A73235683C30353BCD3A35F43D2A35AC3665B4083DD533EADEA8345B1CE334036AE5345AC30935D45F0835265322B499150934C11FB934B8F4E3347DBA09358B8728353DEB1F35FA9BBA34FE30A834CF1BBC3412D30635AF40F0348AB3BB34816221340C331F3599200E3580E21B3571A8703596596E35BDD05E35EF181235A0E02435FFCE163563E03935A1C675351A327235F8AC663525133035861C253577D42835EB3F6835D9F58735D45A8135511778356F6A57353876E4345422283508EF5C353B9D91355A7C8E35CEB681354048573550DF94343B36263525504B35BFDE733521F271350DE55F3511E03735F1F0B7342E8F32355E876B35A4D68735CC648A35547488354CE66735BBBB8ABBD88950BCBF791E3D0FE6543D152F1A3CCC424A3C57C5D13BD548423CB43391BDD2ECE6BD39A1B9BDA836B8BD71A6CEBCE90C2C3D883999BD5D881CBEE45459BEECED7DBEDE1366BE66B0FFBD16AA84BC2008CA3DE3FB263EF1E56A3E58E15D3ED268263E1B22EB3DBAF8AA3D1DC2EC3DDC9E7E3E36BAC63E038FEA3E5B87A63ED5FA293E3D80AA3DC587693C685D30BD164B69BD4E8D8DBD5746A8BDC91C97BD3D6708B9EFFD99BD9A812CBE539173BEDBD383BE0FEE5FBEFC13BDBD2403953BF09C80BC437A99BCD855493BCCD82A3C9D2B99BC79E63CBB7BAE9C3BCA909DBCE97DF5BDF76D55BE1C544ABE2C4F3DBE183EBFBD712F393CEAF0C0BD8A7736BE83CD89BE9659A8BE43DA9DBE2C0938BE39CB42BDD49C253EC979843EF0A9A83EADA69C3EE4EF6F3E2AA2323EA904003EB864333ECF14B43EFE50033F3FCF183F424EE03E70477A3E0147173EA19EA53C3222B8BC3B443CBD4CBE70BDB05D89BD212652BD8A5F023D97BB9FBDCE4824BE301087BEA00B99BE24D475BE071FC7BDF4C38A3CB38F42BD0F318EBB0301D53C6E95F23CB655883C952184B91BECE8BCF89C6A3C3A946BBCA7AA87BD38EC20BD6478F1BC60018DBB5E21A53CBCE45DBDC088C6BDF64E16BE072631BE8F9F15BEAA6DA1BDF146E0BC3BDB8C3D83C2BA3DAD71033EA979DD3D59F4B73DC334993DDECF223D339A8E3D02D2133EFC955E3E47968D3E6422453EB463B23D2F74193DF974043C0DE003BD246389BDCC209BBD6D4B85BDBFB359BD51FA38BB24EF9FBC2DE70FBDE84BB3BD425FD4BD934290BDE9B4CDBB77E0343C33C6473DF02FE63C3552613DF25C28BD376026BE7F12A9BD392D833D3D47F43C7FAF9D3D874A1C3EBC77123E38F8CFBD6A0381BE582405BEA2F381BD1F2C85B8E965433EC5B3BB3E52D4813E247FD3BD968940BEBE2802BE5D3354BE87249DBC612F923E6605D33E5C0F113EF6EE58BDC36272BD9BB077BE6E4266BE7B8D13BDD14C483EF9BB1D3E1CC5A13C6A346D3D4B27E8BDBE2029BE65DAFABD68CC763DA4CAFF3D017B123D111CF83D5942A0BCF5D2F9BD4F3D22BE73F143BD01D0853D7DBB763C29AC523D8C5CFD3C1E18463D42DC81BDDA4359BE667FF6BDB91F693DBFA0DA3CF445C53D6D65323E1BA3353E06C109BE279DA6BEEBAF2FBE44809FBD1878BD3B328D663E7458EE3E680AA13E5DB500BEDFC162BE0C5722BE9FC166BE4DF0CB3B1972C33E470A013F07D3263E103781BD03BFC8BD112D8ABE8CA073BEFD14FC3A8E267D3EB02B2C3E2914C73CFDDBB53C08730EBE47064BBEF25803BE0D5E923D8EFC063E87BF203D68B0CE3D418300BD698505BE8B9426BE0A440FBD3364AD3DB8EF053DD9FEE73B9CAA6CBCC863153CBF9817BD925E08BE0AD655BDC0F28E3D1A8FA93C33A32D3D5E56993D2AE5DD3D9B15A6BDB03938BE881961BDFE3AD1BCF50942BB8B64C03D897D873E0D51463E1BA0B1BDC0A9E9BD495175BDCAEF06BE0B1FECBC625E313E4994853ECC46893DABCB14BD1170DD3A45D6E5BD32C30BBE966B44BD5D989E3D4234393D17EC5DBCBFBE283DEBE906BD7CACA2BD0748A3BD4F60623CB72F3F3D659C2FBC8D53A33D5F372E3C136556BD8441ACBD527BB3BCF0DD943DC974223D9C49C33BF40A193C7E06063BA4BCE43B872C9D3CB9FC273D8F71593DE0A6C63CFE8D063DCA310C3D89DD453D9E07853D3957743D512B653D070DEB3CA5B9353DC3E4563DCEE5853D89205E3D5689ED3C3C43B63C6AA70F3DE6D635BC9FD93DBDCDB10EBD88B4ACBDEEDCF4BD55EEE0BDA41A0DBBA9DA58BD8A73BBBD392AD4BD15C70CBE582D25BE63DA11BE48F3AE3C41CFA93C52FA8A3CAE4F2E3BE15EE5BCA46211BC4FE6843BF1BAA73CE3E4B83C3A40233DCC63623D4D690C3D380E193D1C352B3D3996603B9E323CBBB3A2603CD846EA3C943ED73C4CC2C53C4C23EA3CB53C033CB99B193CF070D53CBFFF4B3DCFFB633D7312293DFF38F43C48571A3C2BB2843C8267FE3CC0D53D3D7E9A0B3D7A64413C22C90C3C3B8F253C6DCB57BD6A06ABBD5C008BBD34A9E0BD5DA911BEF58A04BE90C34BBCC78495BD9834CABDAECFD4BDDE1C0ABE7C1526BED93006BE5D445F3CB11A9D3CF9CE133DB511F73CB851A6BBEB50F53ADF97BC3C641E7E3CD14B863CF0D93B3D102E873DF62E093D42FF043DB026383DC9481F3B7B4814BD63FEE8BCA99A01BD48BD3EBDE10148BDE4A21EBDC299DFBB6D4A39BD7B1024BD48CEE8BC83A300BD020324BD03682ABD8ECAC1BB2C3810BDA276C9BCC1BCD7BB3384DDBB7C17B4BCB8808FBC9BE78B3B20F08CBD4362AFBD77F249BDFDC290BDAAAAB7BDD797B0BDF020C3BB398876BDBF0280BDE19438BDEBCA72BD5CE790BD9EB45CBDE75BA83C104DA53C44F8363D5D22703D8B9D2A3D6A84533DAE8C7C3DCFE9193C8AC012BB6F5FDA3CED555E3DA14DDE3C2BC8FA3C50BB3C3D8A91293555D68035006D59356D94CA340BB23F359173F8342ACB17B318EB9F353025CA352E3AB835A99A92350489B13544839E35FBCE5935FF6E8C35CA39BF35E61CB3354B8D9135C1197935EF866D35891687352731CE35087B0E3627C00236CDB2DC35AD1BEE3516B5E035F84CB535E1C8F135823F1E3698230B364780D4350DB0F83518220C361778053657DDB835DE19EA35F3A0DD35EC2BC23517D4D1353C7DE1359272EC354C09B8352A93AC35A448CB35B333DE3511C1FE35AE4EBD35C3199535A27713B6CCA0E9B55547AFB528C8D1B5B431CAB5114504B6E70F2DB6401D07B6E231C7B59FD459B58AB94EB5328E3DB5EB919AB594E400B62C8EF2B5C9FF58B5F54E4CB41A9E47B44A701EB529027FB57356B4B54D5E88B5A4838D34C6162D35025F9E349EF03134E6AD20B4291583B5723364B50DA3D23407F722350152EE335EB78A34DCF57E3448C0E2B43A8BC5B5D35C0BB542E5E5B264FA40B41A8CEDB387D380B3897A01B518FEB3B58C0896B5D8361BB571CFD1B44E1D25B4A4390DB56C3795B5C373B8B68D7DAEB68948A1B6F4A8A6B640DA9DB6A891A6B65531B6B68D88BFB64FA3AFB60AB595B64EEB95B6940F92B60BF49BB6E725ACB63DD2B6B641269EB67FE780B6320C7FB632AB8AB67F3D92B6895096B6AE3DA9B6B1B184B6C48452B643BD63B6B69D66B69F9077B6AE128EB624E9A4B6287771B621E04FB6BD516EB6318C66B660B260B6B7F07FB62422A7B644CF83B6EB354EB66F914CB6B3214CB65B364DB6764966B675DA93B6328C8AB6E5C05EB61DFB46B6CA1836B6ABE94FB681F16FB666AC65BD4FE390BDAAB714BBB425833D94D8FB3D3860393DE7993ABCF1E126BE178F0BBEAFD308BD9683303D8F20123E2FE6F83D1D77D83D944049BE16FC2FBE408FA9BD701FEF3C13122B3E2E98233E3D71193E5E4734BE953445BEC611D7BD2ABC103CB2CC183E6A081B3EC345273E6B1422BEAA4F40BE73B1B5BDECD523BA6C2B113EB925143E4C5C1B3E741719BEA3C23CBE3EDFB4BD471E89BB93F5ED3D1917F53DAD70093E800309BE038239BE9338CBBDDBBBF1BB0772C13D7545CF3D3C4C013ED90AA0BD4E45DEBD16F8EBBCF6F5643D29E5053EE9159F3D15D7F03C895751BE8A8144BE79DE9DBDCC23D33C970A143E5D98183E08771A3E4FF173BE46C66FBE15C702BED62A8F3C824D393E0F40553E6775643E1E3A5DBEF7EE7FBEAF3C12BEEF9C133C6EC13D3E52946B3E6E7E873E170B4BBEA3D67BBE18E8FEBDE43E23BB81F6373EA647683E8C20823E5A6D43BE68F478BEC96603BE455C81BC317F083EF2ED343E3A37563E42BC1CBE26F663BE6B3004BEF507A1BCBAD6CD3D07380D3E585D3A3EFB2FF43A0B6C79BD3F03E9BB68221E3DC5B3AC3DB822A53C3C91D7BC28D3B6BD96D705BE2A064ABD35DDA1BB2AC68A3D0BDD7D3DB6AB833D224ADCBDE51019BE98AAC5BDC67BD8BC2DC4A43D93E3CC3D0CF9E63DB6D19CBD0FA323BEB286D5BD3955D9BC7454C73D2100013E24C8233E58AA67BD9A541CBEFA1BAEBD0DBAD2BCF97CD23D6A46053ED425183E43CD1CBD6E9B16BE35FEB9BDEA2A27BDE7147C3D4AF0B23DAE69EE3D29E1E2BA82F0F6BD759A9EBDF5AEFABC7BE2453D0953933D34A7E83D5D86B63C6735E93C7DF3BC3DE526BF3D5C128A3CF36366BE4D799CBEA30B83BCAC01AC3CFE8F2A3E3F00C23E241EE13E5F7D4A3E15379EBDB68934BD9FF7BBBD5223953CEB5E953E344D153F13E0013FD1E7503E374F63BD235046BEC53D84BED4BD12BE1E718B3E2F8EE83E3750A53ED00953BD666B60BE02EAB7BE51EA01BF444F90BE3E261E3DDA631A3EABCBDF3D350FB9BCE36E38BEA30ED7BEEE64BEBEDC5819BE9E9D9A3CE8D53A3EFF2F1D3E640D1C3D49B45CBE6FD693BEAA8645BE145C83BD938F2FB97B486EBC5EB601BC42C117BD13FA29381389443CCC4A933D8FDD5ABC6937ACBBA813E5BC0FA83FBD558B81BDD7309CBD6BE7D1BC56522C3CF106073CB02A6CBBA4534CBD4AE88CBD6FC7DABD0C9396BD65ED4C3CA041B23C1147AB3C2D767DBCE354273CA0A053BD127176BD142C23BCD7C6093C6C6BE93C670B43BC2F882C3C8E75D6BCE6BF23BD936F603A7E53573C77F72E3DA2D0133DEE0B883D4908393D1584593B0FB1193CBF9B113DD2DE833DDC13643D58F06B3DC96D863D5286823D0369323B6C31E4BCFF2775BD1E82B7BDF759913C0B194A3E29C6923E1552593C6856C0BBE5BD0ABE20DC9EBE0EDBB5BE3918F9BDBF68CD3D5C61FC3C3D9F543D0A2FB8BC24208EBEAEF607BF0975E0BED4260EBEC607973D4C4E483E1EAD863E7857163EAFB948BE1574C1BEA3065EBE870D3B3D6840373E6FB1B93E0A96E73EDBD96C3E8ACD78BDDC41E1BDE0E5ABBD400597BBBF5D233E0CC8B83EA127B03EF330113E8CA1DABCF0971DBED6E637BE0D4D8EBD54B91B3EFA164D3E519AEB3DE086DE3C5F2651BDA4C168BD1A6941BDD6C070BCF1BA803C6207C43B98569BBC4447E4BCC8FC39BB49E3103CEAA6AE3D38EF143E6532E23DDB84613DDB7441BDB75A01BCE11EF03CD2D51A3ECDCD493ECE25133E0D1AC43D52CA70BDD1479CBC47D01B3DC8D1173EF99F503E0890353E191AC73D750200BD3F4AF33BFE81183DD33EEC3D68512B3EAF9A1B3E7077903DDC8937BD785A503BE874AA3BD8E2803D79A8A53DC5AAA73DBAF3463D297E4ABDEFD64DBC291D9D3BA2663E3D3838183D23649F3C8978CE3B357A8C3DFF341B3D563CC23C3EF96ABCA0F59ABCAC67EB3B1AAD983C5252353DCC2C933C24AFDBBCFA785DBDD9C85FBD006E1EBD4B7FF9BC445DE73CC8DC77BA95CB71BD9F43C4BD4529EFBD5F4DD2BD02F867BDBEDFCDBBB8AD1DBD6BBAB3BD36DB2ABE12A343BE649B09BEB6AFC4BD9B85883CB65B82BC85A6B3BD64AF3CBE2F5855BEAA2F0CBEB531DBBD661C213D6A79DC3C6CBF76BDC83717BE85612DBE49EEB5BD5671D8BCC3B92E3D8F76C43CC073CDBC0797ACBD08F0D4BDE3746EBD06CF8EBC132E8DBBD3FA803CBDC27C3A60EF8BBCBB558DBC233B17BD25A107BD54B58D3C14A5003D33B2303C4971063DFF9B263DE989443CE2EBB23B7143ADB92A83FC3CDE0DA43C4BBA833DB5F1643DE69C983C6B152C3DEBD620BC4328203DE61A693DCCBF8B3D89AD643D891B5E3D30B57D3D74DAA73CE9B88A3DB6C2733D1F5A333DDC2B183D5AFB4F3D1CC5403DB90566BBEAB4863D1DFA013D63D08F3C2D3DF43BCEF80F3DABDD633DAD5DBE3B3E198E3DE792683DC16C753DBBFD213DDE9C123D4A101D3D5C02C53C48E83F3D9293333D53B8223DBE9A193D98C1853C2A33163C1920C73C7AD03D3D3D931E3DA61C303D78133C3D2D54EE3CE5B9843C2E68043DA330553DCD9B493DC45E4D3DEC9A573D0808123D75F0F13C275B143DD7844C3DDB10393D583C3A3D9C7A4B3DF185003D936C0E3DE85A193D04B2453D62A7263D0C9D283D7D03283D260CC13C74B2033D13310C3D3CF53C3DB5D92C3DC7C91E3D187AEE3C8ADB343C7BF6A53CD705D83CE8D82E3D5688393D28FC363DBDC01F3D5895A43C6845843CBA8324BD4B62C8BC376E5DBC83398FBC952DCEBC08B455BD493E56BD50884BBDDC65ABBC082C33BA5818593CA46C4A3CB9F3C5BCC13748BDA4E9C0BC84AFA53C08924F3D7AE8853D1699803D9A72A33C4CCD6DBCAD187CBB7D63203D98D1893D79219B3D26358B3DA93BD83C689DF83B12739CBBE006F43CCE6D4D3DF9E76D3D377B313D66FFE73B0D4A153BE5B394BCF96FD93BFA20D63C1C1FFF3C22FB153C4ED4CBBC4D6CAFBCFFC409BDA35988BC62D1D33ADBC4523C6A547B3B69B3C4BCABEEFCBC45C3BDBCF14AD5BC9CC1A3BC23DB9DBC23BCA3BC71DA07BDFBE7A2BC79D93DBD85602DBDC5DEEEBC7ABF44BC3F6FF5BB24FFDFBC0B8BE4BC2DF912BD3E3081BC37246F3CCE940A3DEECE043DFF76123B8454E8BB109487BCAFB6C43B4775153D459C543D66DD2B3D032E003C9AE9E93B5225CDBB9924D23B93ADD53CD6011A3D81B7B63C945C3ABC3ED8743BA0A9A7BB1B0A59BB94E92B3CBDC69A3CA91FBFBA1D58EABCA776B8BB44F145BB677B95BB993D863B2B608E3CEDF2613CA1020EBCDD89B33A0732EB3B238711BCF6942ABA1F6C6BBC1D3386BC39E7AFBB8EE2D5BCB2F382BCFAF60ABCC21995BBBB6BE5BB034F1FBC8D1E763AD277B5BCCE7E19BCC86279BBF4F869BB768DB3BCC38065BCB72625BCE18F10BD5D7669BB61C49DBB360634BCD58EE13A9F5B2D3E48C6E53DF285FCBC9F08B7BBEEE5C2BB9B4005BD2F91A2BB943D413E3015F03DB5AE38BD9C3695BC681DC7BB527526BCA1723ABD1A005ABC4B30EBBCF0FE72BD8B41C8BCF745A4BCDF8AD8BBFA73DBBCD35324BD29E6D7BCBCD064BD235317BC69FC93BCE22879BB15684ABCABD190BC85DEC2BBF15B8DBC54B3DDBCBAB484BCC69B31BCE7085BBCC962AFBCAAEC3ABCEFEEBCBCD13A9EBCA6AB70BCA73245BC75EDA8BC56B573BC39130ABCE39C05BDFF85C83AA9A3AC3B1A945C3CD6806B3DE726763E8F64363EBAEC7E3C4A8C843BFFE62D3C5D90413BE7A8883D0CB58D3E64E84C3E2CD5073C46F880BCD9D8913B3545393C666C2DBA3B7D173D0560D93C1D0297BCD26183BC2AA333BB1526D73C7E4DBE3C1439183C0419063DF2F0AAB9C09AA33C5AB38D3AA844823C95C9A33C2A0CD33C4252153D94F28A3C73E7A13B6E4F6CBB9D87D0BA7F2F583C5DFB863CF840DA3C9C56023CB31D4C3C3797F7BB2B8E77BCBF71ADBCDDD442BCFC3AFBB95B9584BC8D94F13CBCF6A03A8779EDBB9B589B3C5860483E4D64173E3E7B123C166AC63C8C1BB3BA3E5009BD2EB1E33B9654533E6B88113EB3948FBC5967B6BA8FE54DBC9848DEBCA5BC6EBD23E509BDD801EFBCF8B238BD5CDDB5BBECB875BC90B6B7398F4104BC74B5A2BC1899463CDBA1CABB2C7311BD3325DB3C7127BF3C3B14AA3DF90EBA3DA105B13D826F283D47BB793D5B06BC3D424B993D4F1AE33D859CF03D1B289C3D22F21DBC4739AB3D866DA13D7B1C953DC64AC43D18B3B83DCD06FD3CBBD487BD88DCCB3DDA3F693DEE36413DF59C833DD05F0A3D352035BD0214C6BDA234393D9BD91A3C542E6EBB80931F3C79D41DBD15FD00BEAC0F17BE40FD17BB7EE5DEBCB0B379BD3054A4BDA46F02BE7C3C50BEDB4D3EBEA30C4FBDC6D9CFBD211A02BEB49B40BE182558BE5A0C5FBECEF8EFBDAAA48DBB7262303DB0D4373D6093D13D17CDCC3D1B37C23DD1297A3D751E903D439BA53D335B793D3C57C73D709BC63D298A3B3D1405E8BC23F69E3DA7B8763D47F47C3DCF8EB03D0B02953DCAA6C3BA7408B9BD46A89E3DD15CFB3CA856093DC64A413DA4FA7B3780DBB7BDBBAD09BEAA4DE73CE7AE50BC2E6BC8BC71B96ABC4A7299BD30C02DBE600B3ABEFF53F53B9E3FF7BC31349EBD5960D0BDE22621BED8AF6CBE039D4DBE425104BD588FC2BD377601BEE5964BBE0FD66CBEB1BE69BECEB1EEBD76D0AABC8BD22E3C38F0543C793F8B3D77EE9C3D35879F3DBC9A303D0A1D133DAD751C3DB611B63CD5017D3DDBAF8D3D63C9153D98BB05BDE8414F3D56C8D23C4AE6ED3C70B4543DF9A0743DE2DDD33BA7ED94BDF034643D7430233CFA694A3C9D8E363DC864023D28E515BD7E2599BD2BDC6C3C5B1E8DBCA1EAA1BC34A72A3CF99A45BC158DAABDA8A6BFBD337EE43C16C4093BF0BBD3BC06A0E5BC868144BDE981D8BDEE93C8BD89D733BCB1D45FBD18E68DBDA459F4BDDD8502BE01C808BE70A039BD8F88F6BCE52BCD3CFEBAEA3CC8837CBD64DFA9BD3F0C37BDBA7B723DACB6A3BCCF6B443D5C40AA3C85B527BE85B31EBEBD61053C4ECF073E66DD80BBD965A13D65898EBC18018DBE280D63BED3E4933DBC17643EB112793C4E32BC3D02F713BDE383A1BE8AAB5EBE17210E3E8594933E2F55233CEA42A73D15709ABD87CF94BEB97202BEC7F0013E2AC66A3EBA89823C7C8B633D984AA8BD23D72DBE74F2ECBC68BDBE3DC5C54A3E5D54FFBC969804BCD9598ABDCA3898BD9158063C0F079B3DE4F9233E7BDC38BC37638A3DC30C273D05B67DBDF750CDBD8B7629BDC4AD9C3D6E298B3C2F70CA3DCD46693CB9965FBE9AC964BED30F7B3BF1C81D3E7B2E0C3D58ADF23DCA313ABD4882B8BE9A3C9CBE5C459C3DBC5C8D3E134F393D5A1CFC3D7305AFBD5734D1BE09AC8ABE93C7423EA319C03EACFDDD3C4AA8BE3DE3D208BE5C26C0BEBF1525BEEB823D3E70F49D3E145F9B3C7D5A5D3D838308BEEC4956BED81413BDF60C063E36EE813EB1DF1CBDBA8377BC0B27D0BD0C0FB5BD49D634BBA6339C3DFE42313EAA19F6BCC736093CBC7FDA3CD5ADC73B396725BDC0C931BD598A66BC5130ACBB1FC82D3DBF7C2E3DCB6A4CBDE5B1ADBDC6C690BB729DB73C087893BBBA6A573D2BE1333CFF7204BE1E0314BE3D08773CEFD88D3D4DE2433CC307953D1A798B3C22920DBEB2A9F9BD134FAC3D4DEF063E2898B83B6E1B843D14658EBCFB700ABECE0F71BDB8EF943DB946B23DE469913CE0AC213DB05600BD92D736BD2B06253C24140E3DABE38E3DF60523BCBDAE36BCA0400FBDD654C73B351A003C59DFB13B3F0B063DAA12543DAFA80ABC88DF2FBD4D848ABD736E9FBD009589BC7E1E783C8BA8093C7DB0FFBB491A0EBD77A684BDEC0B6BBDF66EC8BCD79AABBC1F7ED43C7025443DA4F75C3D81F7DE3CE089B53C1B1FB33C55F4763CB347673C479A5F3D930C903D1A323F3D04165D3D3CB7713D5C8D323DCADD37BB8B19023DAFD2823D764E8F3D4919863D41DFAA3D48D3A23DBD5D5BBDADC9E4BC1854723CC527113DDF19583D9E0B553DED40C43C9A9F76BDCCC743BDDDDB3CBD720D0BBDC473D6BC6F9060BC5242B1BC5A25303DC714A63BAC2031BDB28197BD4817AFBDC73803BDB15F9CBBF5F2133D21A4033DED95EEBB588622BD648809BDA4122FBC388806BCA5576F3D652BB93DD89EB13D1BA66D3DA123183DE0A0D43C16DBA23C51504C3DE825BA3D2B3AB83DEB4F853D0E4C6E3D8737623D38AC283DBE3BE93C579D883DAB46AD3DF6FAAA3D31238C3D39D29B3D668FA53D31CADBBB976DFF3C4EB6833DC642943D7CBDB33D00A89F3DAFF0613DB54080BC44C35D3C150D843CA893953C8438AE3C8A7DB03C645A143C4598B63C444D4ABCF73E56BDC58EA4BD431DB4BD72C51CBD456DFCBB16EF8A3CDCE32A3BDB44FDBCB42E5EBDB36434BD5B6AA6BC16CA41BCC420163D142D4A3D7ABC113D511EA93CF953843B6B7511BB9EC90F3BCDFFEF3BA085013D6BCEAF3C8AE2F63A4A88533B18D43ABBF2D2A1B92D3842BCEC5AF63BB3626E3C7E598F3C8FF7043C0298A63CAF52233DF3CCD2BCA220D4BBF8666C3C3B36C73CC34C2C3DF12C183D8AB0F93C6190EDBA7A2F373C20E76CB9628ED139596BDCBAEE35DDBADD154A3B0DD4A23C75D3F43D9F93C33C9EF1B7BDC055F9BD9538B7BCF39D0A3D30C4C03D77A7143E38645D3DFBCC9CBDFCE7FFBD11994BBD820A2A3C1F96A13DBE7C273E1BA56C3DEDC0D7BD06A80ABE0DD934BD5A131D3CE3BF5D3D4D842C3E14DE443D4BAECEBD2C100ABEA9F155BD78183D3C4680103DC7ED0B3E107A003DFF7896BDCBBFDEBDCD200CBD116F493C69C9CFBACC79E53DEDE60E3C75E4A1BD65F4ABBDE57E413CD922723CDFDE95BC3722C53D299A353CD74BA9BD1E45C7BD7B8C703C42C6F0BCB30AB13DBEFB0D3E4A15AE3CCD7F04BEF9E83EBE771637BDCEB46F3D0F72253EED43353E8DBC533DA00714BEA6E57BBEBC97F6BD2F6C023BF01C0F3E85274A3E28A2733DF71C37BE4CD486BE31A304BE44725EBC62D6E43D7D89483E0C4A333DE0E230BEF4BD83BEF69301BEC59448BB3264C43D20312B3E015F053D458209BEC23D66BE48A6CABD148EAC3BB9CA423DA082EE3D3850BDBA9F9709BEB05032BEB1AE02BD0F2AA33C340DDB3CA142C23DC3ADA6BB874DFBBD564C27BEC89897BC453175BCE1DD203C41FC533D217748BCFA3DA0BD1CA6C3BD113B363C7E42B53D4962953D8F019B3D39B0273CF06AAEBDEE0804BEEBBF27BD7247013D7141473DFB71A33D8215373CE60FEBBD94FA09BE15CE0DBDB917CC3CD338313D8B8AC63DDF1E5F3C62D1BCBD5AB5F8BDFE4E0CBDF6E7153DD748483D772CA83DD220993B683990BDF68CD5BD0DC186BC4A0C593D4DE1C93C874B7C3D485969BCA12698BD8DFDA8BDB49DDB3C1E53543DA1F1AE3CCB9A6D3DA1CB59BB3A6E69BD4D2494BDC8BF1B3D1A672F3CD4756C3E86E4323ECFFAB73C2038EABD23A1D4BD6FB3C0BC0692F8BCB24D2C3E8ED2803B0DAA64BEFD77B0BE78434CBEB3E0DABC36AE4F3C5081C53C3C4B50BEC96CD3BE04DEE2BE329D23BEA087123E570BFD3D11A7F7BD2963B2BEE5D6EEBEC3E39ABE8E10533E4FB1D73E8FA85B3E08A7DFBD1EF363BE64953BBEB593713EDA61213F38AAFF3EBDF5D63DF62317BDC5583FBD7BD4EE3D008AE03EF6B6023FFE532B3E7AE475BE56921FBD59C9D63B4E39113E12F17F3E2264113E244558BEE6F0D9BECB041ABD2AB49B3C03C02B3D7673553D70F57A3C2ED99D3C6EBC01395340393CE7DB8B3D528D8C3D4FC38B3D92FDE43C9D89F93B89BAB2BBCDFA0D3DE9847F3D29A5883D722A893D8A9B0EBCEEBE89BC031484BDB4B4FD3CBCDF823D6996263D154D1DBDA60175BD893697BDF2CDD5BD04D4803C0F7B293D587EA5BC0AD72EBD4A158ABD5E95A8BD938440BD1C02D63C85ECE93ADA1D3FBD1E12A2BD4152C7BDD5941DBDD73796BBA5618B3A72CCCBBC1A4798BD3CA9BABD2E3B1EBDD17B753CE413573D05D95ABED9D339BEF19997BD5ACE913DBE02203D82B2A73B898A713C4DF535BEBF118FBD1471E03DD5C8853E998A253EC364893C99C2F3BAE0B170BD11D7EB3DF637B23EA4B7DE3E29CD093EE2B28BBD73FF9ABD2597973DA1AC8D3EB925DC3E952A8B3E08972FBE489CA7BE01FD24BEED9A683D14E84F3ED643123EEBA027BE998C07BF7011D5BED38D3FBD5FABAA3CB4326F3D096875BD47FCB0BEA0AFE5BECC2CDCBD91845D3E8588AE3C370EA33BEB69B7BD3EBA43BE28FAA7BD7A0D443EEE61AF3E64D5E4BB28593FBDFBF1D5BDD0A37D3C3372A63D0EF1ED3C8186A6BC3BF2CF3C9A98DC3DFA67A43E63333B3E007A1BBE2296DFBD6DBD80BCCDDF7FBBFE501BBD47ACE4BE65A10CBF6A0BED3AE3793B3EF4A2683DCA2D2BBD3AC107BEB1183D3EDDDD383F912FA83E0ADCDABD953D80BD86170B3D1D4C3D3EA592253E36DDCEBE22CA01BFB4F175BC32E8433DF0A47CBC6AFCD0BD9B4C8FBE9CB36BBCA564A13EB75B213D5AC184BDD5493738643EEC3C50B2043E6375C63DDAC49ABD4FD206BD06E7223D2DA1FF3B086985BC5E3F8EBDC0D9033D962FD03D82D80A3D7310E13AB8FF8E3B10259C3DE4128B3ECC84963DF92584BEA2972BBE71EC94BCA21D19BDEDC5F6BD2B7011BF8FAF1ABF8CC29E3D46E0863E0CA7C03D243111BD1EE6A9BDC5FAC23E4494803F9EBA023F99D3B2BD5633BBBDDE4DB03D44BB8E3ED0165C3E3C9903BF3E702EBF741CD9BD9F487F3CFE8E8BBCE8C61EBE3E94CABE0FF1E7BD25589D3ECDC2793D465B71BD8DE4BBBC6DB72F3C885D0F3EA7AA0B3EBAF533BD2A5DBFBBB6C2873D91D2E23C97400C3BA39BBEBD6CDE15BDE21F8D3D0BD3D33CDB1118BC57E604BDCCCB373CDF2E5A3E2C460A3E3F9606BE75DFEFBD973FCDBCED8741BC17B596BAC590A3BE42BDDBBE5B08E33B68C2063E92E96D3D726F02BAD830B6BDFAFE253EAF0E143FF09D8C3E5261A4BDE5830FBC1653363D5469113EE306FF3DCBECB1BE2A2ABDBEE975373D70822B3D01B2303C86FF9BBD15EB44BE5016AF3D030DA43E9402853CBAD38ABDB78A1ABCBC3F87BB401FA03DD563833CC89F0FBE87EE60BD0F36303DD3955DBCCE3F16BDEDCA19BD79D7923CBFA8A63CD5BB0C3D34CEFB3CF70F98BC5EBE2BBB7CA41EBC8BB5E13CE93D403C48D3063C8494F1BBE44434BD2AFD393DDB27163D42281B3DE104DB3BD057A2BC074D88BD176159BD17C2E13DF5C1FB3D1E75BD3DBC01DABC64ACC3BDB89A0BBE7307ECBCFBB81F3E1221353ECC9ED33D170172BDB27207BE32672CBE66189BBA1D88FE3DAA80053EFF699F3DCDA453BDBFB6F0BD75622ABE560AFBBAA6FFA13D0D53B23D75E8693DF48B45BD518FCABDA76904BE622470BCFE1D55BAABA11ABCBCC4DF3CCDB5143CDD9AD63CC2EDDF3C41DB093C996D933D7320453DEA47393D46FD80BC9C06F6BC60855CBD66A9053C3DB3203EC2BBFD3DF82D863DFE41EABCD32DB0BDC39616BEDE54693CB38D7B3E784F713E2DED0C3E5FE081BDE63D41BEB8BF79BEBC262C3DC5D6993EBAE7983EDC11233E8C86B0BD6C356DBE245192BE3677713D37F9803E5346723E1141073E92D798BD3D4751BE09428ABED3094F3D90EA443E70E63C3E2C97D83D3F7A93BDA40830BE557658BE7A654FBCFA271DBB16E3A8BCB0A53E3BDF22D6BA1C7AB83C268BA63C16A64F3C5DD7853D51C5063DB19B893CFA43EEBC0045F6BCD28937BDD5BC39BBEFDA023E6958B73D958C993C7B7E52BD5513BBBDA0F00ABE6FD003BCB661573E30A14F3E5E0AB83DB9639EBD2CA62FBE547657BE4BFF4B3C63F9833EA4F5833E8170E53DE3B3C9BDEC9457BE29D780BEAC7EDA3C93CF513ED6EA403EEE6A9A3D7A3EC9BD36B148BE141879BE1CBE153DFE191F3EA394083E7E1F313D2381C0BDC1D121BEF45235BE38D2B9BCAC3DFABDD169EEBD0A2BF2BDE9C501BE335A0CBEA1C4E7BD0B30E1BD0E2041BE97583FBE426C35BE3D8632BE462326BE84D21EBEEDBD55BD418FCFBDBD28C5BD5640E6BD1EFAD7BDCDC4A6BDD2C989BDA077CBBC293A0ABD21F6833AA92173BC101BBFBC8A566EBAEA4A8F3CBD4F063D7A97A13D793D043E5F8D103EAE97FC3D3B32FF3D6A19E93D5F26003DED19ED3D0A6D1C3EBD78263E798B263E9D10133E8A0AAE3DBE276A3D80322C3EAF1C4C3E3BAE503E6901583E46C5263E72D6913D29B677BDAE982ABEBEBE31BE4D612FBE88A738BE66743DBE0A4114BECF3B29BEB67282BEC1CD8ABE48B783BEBCC37FBEB9F96DBEBF7653BEEBDCC1BD87AB1CBEBB9923BE5ACD2ABEF49D22BEB2F006BE9876D1BD229322BDE7D744BD890132BC4CE767BC565AAABCB71038BCA2DA703CD24F253DE384CC3D3EA9213E951A3B3E12872E3E083B1B3EC0E30A3E3F965D3D9B71223E2664523E108D663EBBF0663E2D50433E69BF043E84159E3D948F523EC89E813E68778B3E82758D3E578A5A3E0F12F43D49721D3C2F6CBDBD0C59C1BDD0C9B1BDABF1C3BD8FC3EFBDDB90B6BD502CA1BD2C6020BEA3992CBE620F17BEFFEB17BE7C621BBEDA8E11BEDFFFBEBC78E6A9BDB7CDBDBDB4F1BABDC57AB1BD0B90A9BDC9E872BD813D0FBC339CFFBC42F1F0BBA6CA51BB966850BCE9F36CBC4424883CF2AD1F3D57E5923D4490DB3D2B3A043E20F9F63D96D9D03D0366C73D28B2CF3C2482CB3D0A4BFF3D2AE9113E499A183E5077E83DB6858F3D1C70153DA469013E7C571B3EBA1F2E3E24843C3E7D8E053E4837743DFCD6833DAEA9F43B68C2333B0C80BE3CE124B0BC371AE2BC490222BDDDC19B3D5EA9823C4320AABC60AC7F3CCC94213C7E3645BCC9EF27BD4D631A3C8C7564BDD461C9BD067287BD25C1ECBC6C2093BDFC2BD3BD3DB419BD9C4905BE4B694ABE31604FBED22D45BEF2FE43BED1F128BEDA8B6FBD8C8015BE906F39BEC9A64FBEBE577CBE2D3E57BE54FB22BE09723ABC57EA95BDC5BAF6BDF9DE17BE3AF53CBE6B5116BE58FCC6BDF4539C3CEA7680BC25474BBD3B8489BD991BE0BD3F0BC9BDFDBC83BDFA8ACA39725BBFB95DE12A3CE4BF543DF139EB3C45D6CC3C16ED5D3C8BD6753DC9EAA23D4DCB993D7E89143E4F1A243EEE4BF83DB8C1A83D3055C53C689B8D3D8D3C943DDEBF163ED9B64F3E02EDFC3D48766B3D7A65663DD074B63D8510903DC3E3DB3D23ABFC3D4F68BF3D90689A3DC073FB3C8ECF703DEE43953D5DC7B63D8140643DAAF7813D355E873DF592B73CFC7E813DACBA6C3D6A5A883D8721223D82CE573D02C2803DA59A963C9C23873D35DC873D30CAB23DB465563DC625283DE101613DA4F38FBD0C109ABDBC95AEBD329773BDC255B2BDDCA147BD49A2FABC3E4A12BD8EAADFBC946D76BDC1FCB6BC9FB7E3BC0C9E68BC263C183CA8EE85BD1982A4BC240C31BD4FAFE63A344DE83C4FD427BCA2F644BCB437BBBA733B593D33810C3D52AD8D3D238D8F3D2F697F3D3DE7803DCAE765BA8E9A6B3DC4CBA23DD622ED3D43FE9E3D49FFC03D030CA63DFE7776BCB0943D3D8C0E3E3D36F6A93DB35A8E3D9CE7B33D25A0AE3DE86C27BD057BEA3B72CC47BA18C6463DE1752B3D056C523D302D823DAF9001BDBC84153B760EBCBC6149D3BC37C24BBD2010FDBDB48D8BBD26BD1ABCC24DA03D43E97C3D2548B13D4143743DE6E874BDA19646BC90A1E2BCD77CCB3DC98B353E9EB2833E4DDD573E734F493C2B8D093C01022EBD32F20F3EE3239D3E973EF63ED5AEEF3E9C73273E34D4913D89CAF0BCBA530B3E50A4A33E58B0053F4132FB3E0216243E03F5863D69DD8FBD7B6B923DEF343A3E0531923E7941543E961001BDEDDAA0BD9E3B28BD4707AD3DCD19D33D7C8EFD3DF754403DF3E1F7BD07D901BE3A22953D52C67B3B51ED7A3CB24F013D3B07153D2B88943DC795B63D1BD1B03CE5B86FBD605C9CBDDA95BCBD5AFD8EBDFD35C63B897E293C1594E63C2F579EBD8D7FE8BD4D134CBECDB248BE71BD50BDEEF43DBC561DAB3CDFC0EABDB8F275BEB923BEBE990BABBECF0014BECEA74CBDAD52E63C513504BE22AD89BE7A9DBFBECD32B8BE931929BE566144BD72B66C3DE4F79BBDAD6C1EBEFBA25BBE0FB454BE628F12BD17ACE63C527C303DA34023BD979185BD4DAFC2BD3B8E9EBDF6CE673DE550A83D5EE3DFBC9ECB99BCB21BD63C8709833CE2AA713C30880B3DBCF31FBC5C06AFBC22CF42BDFA65BABC2283EDBB9112763C92CB513D721693BC624F37BBDE5F03BD98C331BCCBA3E4BC31C2E2BCE5B95A3DE0A35ABC12C0D43C52F826BCF0AD48BD73A5FEBD4E2BE7BD5AF396BBE2E7E7BC941EB23C170E7DBCC3B787BD813C06BE7A1702BEC70DABBCA3DFBDBCB27FC03C310581BC95AF0EBD063D0FBDB947A2BCEC2EA23D0677403DC11474BCFDBB23BD50A826BD028AC4BCAE907F3BACF1C63D8536643D9A15C83C64B27C3C8B8FC83DDC461A3DABC616BDBE8E2E3C61E47A3DEA10DC3BB9190ABC71BAD4BC69C47CBE8097A6BE9E9F59BD9E473A3D2B7B103C94613C3C4A43D63CEA888EBDFA9763BDC574813D7107643D79DF91BC6A85BB39F6B0233D416D683D09E0A93D1E5AFB3C1C45553CEE8BD9BCFECE54BCEE21633C1984B83CE4ACF93C40D6C8BB8FE2873B5D17A2BC5A392DBCC71107BC19FC92BCBF08613B12DB7DBC3EC713BD935A2ABCA28E14BCE93B88BC1DC8B4BB9E74353CF6A99F3ADFF4BABB10695F3CC830223C180A833D5C3426BD08ECFFBD075056BD89CD1C3D3AFAC2BB92740BBDC28BB8BDF9B7BBBE9344EABE194D09BE00388E3C4E56803CE7B43D3B20D435BC2D7C1EBE730012BECDE8F03C56E8533DFA1B9C3CDAD2EC3CE00E523D0696383D62F0AE3D9BD8563D4EA4113DE868A13C70B5F33C47DB463DBCEF2B3D27A7533D59A8E63CF61E2B3D6B309A3CC967C43C481EAE3C46EE95BB184C723C980FDB3B9588163B77F3073DFC86E13C4FE9673C56F0713C14ED253D621EFF3C84DA243D5DD45CBC5869633B81ECE63D63A1023E8EFB983D7DC7283D77D3CB3BD58412BC5C2700BCD951393C313501BE593A4CBEF7E872BC5852CD3B630CD8BB7F97B1BCF005633BDE5164BD19EF38BD8A833E3D86837C3C2E967ABCDB5601BD505605BC64F9063C478D283D1A29473C6019C0BB4583D9BC6CCB02BD914F85BC2D2D03BDD07D96BC44D246BCD6ADE93B5A8C16BC6EC78ABCCE13CABBE091E4BC318368BC49666FBC254E9EBCADB5933CC536B6BB16AE14BB82431F3B6CE2803C49000B3C5B62933CD2C78E3C1833093B18CBB2BBD9BB32BA0E583CBB8B1D2A3C37FFD63CCCFD8EBD957A1BBE5C0A3DBEE0E9E6BD40BC05BDC3F603BCF7896C3B29A4903D5F2FF33DE50BA43D5DDF6C3D9863143D384116BC2BF4963C39663F3E3AE7B23E7418EB3ED6BFA83EFC9C133E1731473DF73BF63BA513CCBD2F9818BE9C1C28BE4A17A5BDDBCA51BD54639DBC110B9CBC984F1ABEC3EF91BE6E15BABED1E284BE0A5700BE5C552FBD35594ABCFE588C3D64E6163E9E33183E2D75BC3D3B33223D1373843CA74579BC859F7FBC117A52BDB42C77BD88B437BD228A0BBD5F11ADBBC7B69D3C68DD28BDB4D81CBE0EF14CBE92330ABE1ABC55BD76B37ABC77C3943C3386243E40B3783E32964F3E91C7113EE3C69A3DA665153C079F393D9C39823E2CAEFC3E31FD263FBBC5FD3E2117733EF51AD23D97350F3D838F28BEF02A60BE408E4ABEF683CABDA6416EBDE4EDF3BBD32CFDBBD23482BE1DBCDFBEE74608BF2CC3CDBEC27263BE6E2FB7BD576C0FBD8F5C5A3DBCC2043EC26BFC3D46AB893D9642293C597993BB7D5A11BDD4ABB0BBC54D3E3BF697F43B76B88B3AAB76A8BCD021F8BB338589BC082DCABC79A5CDBD1DC3F4BD79D88EBDB882CFBCFB9692BBAF6ADB3B37F2293D28E83C3D58499A3914B84ABC034F8EBB2CC15DBCA454D33C2F7FAB3DE8DD463E037C8D3ECA583C3E8DE6813D306BE33C52FCCE396D676DBD16B9AABD4C0EC1BD302E08BD9F3095BC13844D3C3B69063C0F35A6BD536819BE288A67BE2EA717BEFB7681BDDE9946BC000B753B54318E3DFFE1073EABCE013EB1EDB93D6D52403D243DD03C469F95BCBB6BC2BD48D7FABD15A31EBE16E838BE9EFE37BE6778D4BD8FDDACBD05528CBDBC470EBE037847BEFDE281BE73CB8FBEE5663DBE95F712BE54BE063D06995CBDCAFD34BE52D56EBE1CAB7DBE849848BEE10F0FBE4590CC3D357FC93D39298E3C3C475FBDBA79F5BD62A9F8BD86A5F2BDDC20E83D5CCF4D3EF7F5493E0EEC443EE506093EBBB69F3DB6F5023DD012453D855C403E337C7A3EDD4D8F3EA2D56D3E0DE4203E221EA73DA575783DA7D51F3E0A776A3E5BF6A23EA4279D3E36B1683E81213A3E3E9C433D535B7C3D03A1913DC726383DEF46263D1E0E753D66F1823DE3CD333D4B796E3D2BD7A93DE077453DF34A873C1BBC6E3D02CBA23D4B50B53CB791AB3CF8F95ABC665205BD2DC8BDBCD3100E3B4715273D3057A23C0976563D86C6283D6BA3193C888B69B9F9F1803CAAB70B3DAB3E6FBD326DA2BBA9240A3CF047263C8C71033B7E0DC23BB08F803C094FD1BDA8C62DBDC1DACBBB21623FBCBF092ABD9E4C50BDA14235BDE4FAB1BD800B9EBD8A8A11BDA8138DBCF6F409BDDE7D82BDE28347BDC1DA673D1EA9C43D0FA5F33DB005D63D67F8C33D8E57A83D61784B3D6A27253D5936B23D38F62B3E6F4A343E7CD8193E1029113EF93FF73D6171FCBC22B4E03B0FE22F3DE3C8A53D0DCEE33D793DC83D36B3CC3D1FBBE5BC43B68EBB96BD023DD3D7613D8884BB3D8CCAE53D0399F93DBF76DCBD0327EBBD077AE8BDF259C9BD49CC88BD83C7D4BC25A38F3CC2169CBDD7BDDABDD8D0F3BDA8DC19BEE0781ABE79D5E7BD701682BD111752BD7A5DE6BDC26EF0BDAF6711BEBBB51DBEFDCB1ABE21C5E2BDB9F8D13DF627B63D6E4AA33DECEEE03C5DBA66BC8CBB8A3C9DD30C3D11D78C3D5444743D2396833CA2363BBD33449FBD3D3E17BD1BA632BCED8DCD3CA36AC2BAD0E013BDDC67BDBD768701BE74B1B2BDC6B601BD06F5B43BF7561ABDCAB9D4BD2E1C19BE502C25BECABDE9BD67BC29BDE44D75BC0A0A80BD02F9CEBD8266BBBD998BABBDD4C1AEBDD43335BDE4C3AC3A43BB25BD8B2BB7BDCCD6B3BDE0AF9DBD3A4695BD37E8B4BC5CCD193DDB1BBA3C543DB6BC1077B3BD4B4CE8BD5F1E8FBDD170283A714933BC26202FBBD015963B84CF1FBC7A49A0BCC09E723B5E51583B68D099BB98757C3CF42C57BBA7749DBC1289A1BC11050D3B36C61ABA1F2CCEBCD0896DBC59697FBCFFBBCFBCB1864ABD71B210BDFF7BC0BCE58C6FBC925D3ABC941D1CBD08AF0FBD9C9B55BD2BAA61BDE5A02EBD7C1C6ABCF93388BCA695D7BB9DC87B3D433E783D321D53BC433537BD46679DBC1975DBBC64CD10BD72E0CB3C4AE0053DED02AABCDB521ABDE3CA63BACFC7763B31F161BC934701BD82F853BD93F11ABD601868BC8383C0BD10FD95BD7D3859BD6CF4AEBC0B0A8ABB34738C3C80CD02BC5D4559BDF3E699BB101DD13B7C77703DD0E2A63D21B9AF3DCDC43F3D1E2B1ABD8DD60C3CAC9D483D8DB1FD3DC680FC3D52F9C83D1BB64C3D54B91C3BBB896F3D8596A83DDDFD2D3EE566333E68DF013E17D7903DE940A23CFBDA933DBEE9F13DA16A843E99F98D3ED385263E2156823DE2B45A3CDBB9173D06222D3DE5A5243E5B7B4D3E7180F63DCAE2303D7B0309BC5C14AC3CADBBDA3C66C5873DD383923D3039763D4E24273DDB2FB43D2818633D5AA1453DC9BC5F3C23B91C3C41426B3D598DC53D1EF2C03DD0CA5D3DF89AFC3A373F40BD673428BDCE390E3CD53A263D485B9B3D7AF9F13CC57A37BD458EADBD9BBCB4BD88AD20BD254DA83C2413C43CAB8689BD25AE1BBEBAAB50BE744E67BE6D411ABE5DA3C6BD0ABF193C31AFA2BD13AA0ABE37925CBE061760BE52DD12BE1230C4BD9E5C873CE5B29DBDD4E011BE240831BECF820CBEE047C0BD743F7FBD089E583D9A847FBC47AAB5BD2C77F0BDEA339EBD356AEBBCD3A0F6BCC4070DBEC6A5E5BD9696C9BD7D675BBD07D661BD9EF7D5BD1475DCBD5812D4BD85C39FBD7FCC89BD64F50F3B853EBD3CD83821BDE87260BDE497E1BD7B8E1EBDC8A52A3CC245F93DBCEE1D3EF6A69F3D4651223D2119CDBC999F953D90982E3EA5DAAF3E99F0B63EA2B4883E0CAB183EF55AA43C972A173E6AE6933ECF8BDE3E5EE8E93ED003AF3E134F4D3E7FCF08BD9C3BBA3DEB4A563E77CBB23E3253C83E1A7D873E3F40163E42BB89BDE3285A3DF4C5EA3DF793693EF45E863E3605243E4A958E3D05ED633DDA117D3DCAE68A3D12E2233D3710243D9FE53B3DC0896A3D4AF5713D3876893D2920983DA3A6403D4E3B163DC1CBD53C16F40C3D8D6C983CE496583D4C2C523D2800303B8693EEBC12F5EFBCC1FC9D3BD7D1913ADF8B663ADE1900BD7CC7FDBDA68D39BE4052E3BD10D407BDD81C973B6F2755BC035B87BD12307CBE90129ABE74BD47BEB3B67CBDC51C153B042EDEBCD0F5EFBD15F38EBE7E619ABEA2AB5DBE81FE92BDD21B7B3D80F0713D1AD2BDBC11CF0CBE1A6F1BBEDB48CDBD2E2BFABBCF6D0BBDEBDBCDBC9A4DD1BC5506B03BC1D82C3CD18FC3B963D8F5BC6F0B3FBDAE3771BC9CA718BC4600603CC21D5F3C7601A93C7C6F0CBCF1353EBDEAD8D5BC05EC09BCE604FF3CE661883CF520903CC505303BF558B03B7488BA3CA58CFE3C6D1E9B3D0CD69F3DEB458B3D4E67653DC613A2BB9F29B03C80BA223DBC28003EDCA7393EAB0F1A3EAEF1993D3E0D25BB86F8123D7C788F3D8617173EC906643E2F46483E4797D43DD1F3C5BC9562903B78ADDC3CDC69AA3D35F8E33D4669003E4D5F693D73DFD93C3B237A3C53B024BC7281AB38782FD43B971A083C727FA3BC050B063C5F0A723C0B5887BB98BB29BC1A74C1BC1B9970BB8E3610BC1D975CBCD1AC64BC87D3AABCC74872BC113846BDBBF33ABD7A4AFCBC4CFE67BC48F10DBD1A8447BD0C998E3B95ABA53C0E6F5BBCCEC42ABDCF770EBDD23F67BDFFE627BD0BE2D73DB542553EE8C7063E0B4D98BCF50E0CBD2A364CBD8A1CB8BCAE5EE03DB797703EEA93293E7FCDE9BB1AB151BD3E808FBD5426A5BD311213BD97B0913BC148EC3A8BAFACBD9D58DE3C6393B63C8289A6BA37B481BCC18301BCABA7083C157FC43A4236C53C3986253D3F02D53CF56C803B32C114BCB77E913C7670F63C14B7D23C90AAFA3C9863993CD7C8ACBBAB361DBD55D7A1BCF0D19E3C6E7ADB3C64D4213CF463FEBC385866BDEC577CBD33D491BD6CE245BD732DF63CFE57753BA2D738BDA66988BC83E5523D225EF5BBDF26B1BDABC4503D0825E63C61D6B6BCF4E0A5BC92F96D3D5C04243C7DA99EBD715C653D6A5E0C3D3311F7BCFDB4BCBD5786C7BD2DBE9BBD9114C1BDA84041BD213769BD3BBA9ABCE3CB923CC93F6C3C9E63D7BB2E2E0EBDDDC846BD277FE0BCDE2D0C3D26B05E3DCA727F3D7BAD3B3DC7168E3CF4FD28BDB0D226BC84C8153D96AB823DB5ADAE3D7ABF923D032BEF3C2D8332BDD33A14BCBF0D133D3543A63D00A4C33D09BE7C3D5606F33CC36613BDCC218EBCF11C2F3D4CDEB53D4269F13DE52B8B3DD063223DCC8F2BBDB1A7D6BC62FB903CCF20583D3768B03DFF805C3D92B4DA3C26F835BD208D01BD521F7839A71AE03C0752093D88A93F3C6B01EF3A1E73D73CCB96FB3CA7B4313D44FE713C81D9843C652B823DE927B63DCC9E4BBB5DE9D03C08B4053DA0BF73BD4D6D5DBDD3180B3D9328B73DC1CA943C04B9413D87C2153CBDAAEFBD2500EBBD7BBB2ABCA46E753DB8D3203C3176E63CAEE93BBCFEBCF3BDC57003BE8E496ABD8CD0AF3C5C980B3CED73F73AF7C57EBC4D2AD3BD4BFEC6BDEB5E66BD5801223CD3B8633C85E9103C2C6440BCD92FC7BD6033BBBD186941BDCEC5033C25E0163DD39C1A3D8C3CAE3C3C1A51BD030B98BD784D0BBDF0BCA33CCB68753DA5A3443D631B433D05F1F4BC910CE6BC1F503C3D9315B13D1133423BFF7E733CFE211E3BB84917BEE69921BE4FAF3EBD77601A3DFDC0C63C041DF53CD8E9A7BC91644EBEDB725EBE13EDBEBD854CAC3BA5D9A83C2E82B43CD454C9BC6A703FBE7CDE5ABEC70FFBBDC13984BCE6D59D3CBF02623B5D6B8FBC224925BE3D6730BE2938DCBDB93FE3BC1271F33C246EA93CF160623A0DBC0CBEBDB418BE9115AEBD1EDFAEBC67B3603DE9DA543D45A9273D662DA1BD9033E5BD14276CBD6FD1113C962F11B3193412B373A80DB30A8EDAB2B50CAFB211CA6AB2D31B7AB261B6ECB27D7EEFB26F3BC3B2340AA2B2202F46B2CE56FFB0ED1F90B118F7DDB2731EF0B290F1BCB29F079BB203EA24B2B7291831814A72B07877FCB2EEA8DFB21919FEB2C5B8AEB2158067B2ED44C23019FE03B1F93FE3B299070BB321AEFAB21BBCD2B2BA8D82B2C8A581B1A6FA76B1576ECCB2183F00B3DC3D02B35BCECAB23C8699B2F6BA16B237CF19B235A8DFB2683AD2B25129F4B2C950DBB297E19CB27EA73BB2EE501CB215B5C2B24D79A1B2433A73B2F14BEEB18E8DC5B16114C3B0D0B40AB0A66174B2840311B2BFA90AB2CCEDFE307A810232656D803292BE4932B59344B2FC08B0B1A18B9EB1D7338C31FEC8433276E88E32613F7132DCD108B222A113B29C0C06B2F999C3B0F9B4DD31310F783295288932B8D271B2E0713FB2D3CC4CB2FDDF91B147FC3E31C29F80325F584F32968A1CB2E11F34B2BBD02CB2235FE5B121749D301FCC103272561C32496EEAB148CAB4B1AC0111B2F16BF8B0DC34EB2FF235C431791219329FD4D6B2502098B247DA92B24DF227B24E28CBB17D60C030C70999B19F1967B24B730BB288910BB2EC656631DB068F31AE4900326BC224324D6D2DB27F1103B2A80AADB1FCC72F3157ADBC3158416A3280D03132540833B241C507B2B3C835B2ADAB6F3013E95331FC595C3261DA3C32F69311B24FEB18B202E01EB2C1420BB17F6051312EA53932A894363242D4FCB13C67E4B14A63E9B164C51DB1A11A7530E07218320F05BA31A3AEE6B1B952CAB1635BBDB1035797B06C3014316F4BFB316915B8319E3B823C1FD35B3BBEBDFF3A10E412BA45D4063B4CA80BBB9FFFC63B127D8F3C79C3003CC6E31FBC168EA6BCA16B80BC840AC43B2741323CB786CB3C9335F33C9778253C9458CB3C1EEE293B8BBB993BF9A7833CC2AF003C4D56B13C4069EA3CBB07643DF32B1D3CF1F017BB3905623CA918183C6AD6733C5C7A753CBDE2B13CCEF36CB9AD45CF3AE5D2243C55306D3C3170CC3CEE1C963CD5C10C3C8CF98D3BE9980A3C903F763C8A86043D262B883C3E66773CAD2EB63CC5B84E3CA0E3B13C4AFDF13C38A8AE3B77307EBC5D592C3AF371A23AD12E96BA17BE903B0F29993C1D9A96BC048E06BD4C97E5BCAB170DBDAA8F24BDFA3C8ABC5C71C6BB600396BC582D9DBC893519BCBD66B23B7E4FF7BCACF3F6BC935843BCE0DB10BD17E0F6BCCE74B13B5589123DFE6EE5BC264530BDBF0080BC2DDFC1BCF6B126BD5136A6BCAE847CBC086D2EBD2E4C05BD383026BC5F4584BC8C2718BD8B83D5BC159316BD0D272EBD80BBABBC000E89BA95BE0FBAFD1736BD648FE3BCE06F82BC4632C2BC4F4C39BBDF28193C9866DABC5C0EC8BC39C70C3C3940BD3C5F411B3C054280BBB8860CBCDFDACABC969147BB41E51B3DEC08413D7B9D213C33B0CABB52AA86BC13255BBCD051233DDE1EF03D7E13293EBCA08A3D6BE7B2BB37CDB6BC435FCCBC9A25473D9582323E0C337A3E832ED03D49FC1EBC74B0CBBC00360ABA178C083D4F1CDF3D7A481E3EA83F863DBED8DDBBAF9780BCF95F06BC457DBB396A0C193D3868523D08C7283C2DD092BCDF87AABC109E343B195F97BCF50E2E3C24D6013D17461D3AA6CB19BC88CC5ABCB75619316FE73C3111D6F63029264F30E9A91B31D3AD27B0B0BAC3AD53B7923129F395316AAE9E3014270931D8FABE3082FB472E81A2C4B0F9D89E3153E6D531C35ABF31A4F59731650841B0015FF82FE0B452B18AC5EF31F1F3EE31774FAE31D66465B07A5415B1384C88B1402315B290969C31CAC409323D8EA83139E03AAFB2B902B1193015B23A0402B2C08CB13120F2DC316E48E43114C6E73010B9A4B13A7B8EB1558B1CB2B09FAB31BCA9E731E7FD9A31E2322631A28AB3B157C5DCB15DEAF4B14F6ED4B1D2D9BCB14900A2B16729B3B1F313FAB135EAC6B154F19FB1CA0AC6B1A78F3DB1736377B17A58FBB1B82533B1109796B1E132BAB1FFE463B104968DB1AF8515B14AEB4FB104E08AB163AE5AB1B54711B25CA45AAFABE134B125A5FD2D041B85B1ED0FF4B1BD9303B23664E7B1D67E49B195EC19B14D965BB0C8E6A7B106BEC7B1AA9D05B2F3AD6DB2273735B1C81B7EAF6E38A4B0A3A00CB15409AEB17FBA0AB295252FB27FCA54B19E8B01B1D8BE45B117E99CB175C002B2DCF107B291B2C7B1417ACCB14A3E33B13C1CAEB13A1696B148808DB195CA9DB0B07D8EB1D435A9B1061E7BB1CCCE9BB1DAC50AB1463454B1D5A74C3145187EB1E31683B1F1B4F0B02EE7C8B021B52CB19D8681301F5726B0BAD269B1A3C1ACB1FFF70230A85C1CB1B4BD8FAE04F69AB17D0090B18AB11AB1D03F9FB161FECEAFC71DD42F3F410AB181003EB1BDB81BB1C06ABAB13BE5C3AF26577CB06B8CD5302417092E16B81EB1BAB4A8B0387AB4B17C37E1B0806A2A312D24023109AFAF2E0A168430248319318893ADB0F88CFBBCC118C8BC174E3B3D0C7EE23DEDE6E2BC26CF15BDE65CC03C4F2BC23CC4ABFFBCB1D55BBE3380B9BD6873AA3EEBADB43D836F3ABD50220EBC3204DC3D9D343A3E8563CCBED4BB00BF6A993A3EF5DDF63D701EAF3CBAC600BECDB1A43D5DC4253FC5FEA7BDBBB2C3BED172B5BC9F282E3D43FB053E94B5A4BEAC4286BEDA39DC3E4532C23DB6EF83BD69203ABDF599F73C68CA9A3E90D4EEBDF81149BE552A533CEF79063D86762BBC191F59BD58BE42BDF976043E06B81E3D83224F3A3CEFE6BC5844C33B07AE34BC7E48203DD25DBA3DBB890CBD028E2FBDAAE52E3D1A32FB3C23A0C0BC82D96BBE7B9530BEA900963EB5FD963D518F76BDE6C49D3C7E01543E87F6BE3EBD5FB5BEE90F1EBF0E93BA3D61E26D3DD71996BDCE7359BEF17C3E3ED99D7B3FC09EF43DB2B8C6BE870281BD9940BBBC6ED0EC3A42580CBF0EC9A8BE8FC31A3F54AD6E3E225AD43A3B3729BC7CE9E03CFBF46C3EB000A1BEC41A98BE6057063DDEF2BE3D26FC363DF8A299BC33CA583C5F67FE3D462A49BC44EF24BD0F68B5BCECEEA4BC38ABDBBC7B86853C83B6313D545CE4BD43094ABDDFE6803DFB6C053D934855BC832F1CBE46E381BDF630823EB96A183BC628C5BDB34ED93BCEEFED3D3831723E892585BE9324BEBE660E133E4E6527BB50550DBC2C6403BE626BA33D9A09283FDFE6573DABA375BEF13D33BC8AB5AFBC4EBC823D87C2B1BE792B9BBED0CEC33E6B94F93DD6B9B0BCDD98F3BCECA1A2BBC95E743E31AA23BEEC2763BEB0D5A73C8B1F833DCC8F133D5E02E8BC219152BD7ACF983D838588BB40A4A8BCB214DFBB7FF289BCE96EABBD1DABFC3B6233273DEC68B9BBEF18633CEF46E0BC9BDD61BDF67E523D8138C0BD9B22E83DE311FE3DF7AB3CBC7AB853BD0F7D163D7558FCBDFACA5C3EDA5ED33E246B8EBEBC73B4BD2E99823C9C053EBCD603803D89E8FA3E1AC9FBBEBF6280BEF06D123E0D670CBD6ABC0DBBC6277F3E710C6FBE6638CCBE45C6C13EEB6C24BEC1CB083D533C0F3D0FCB133DC67F8CBE811F3C3EA80B9ABD323001BE7D75163E835C05BCA95781BD187EFFBC8AFFB03CA8D45FBC02CE1C3E1FDFD9BB793E5F3C254B85BC0D478F3D4ECD0DBC5FEF94BDC028CC3CC261023CE2AB64BC43916B3DC00E22BE7606E63C764FC43D5875913B16FD16BD861BBC3DE3F82EBEA0E6173E8889A43E48A7A0BEB55D69BBE959303DDDA066BDE41653BC9509D23E188225BFE4821DBE3D389D3E764A39BDFEA95BBD82F0643EF3EA8FBE4169A9BECB6B283F3852EFBDAB7361BD85F68C3CCB96013D98737FBE05DBAB3E4982453B1C8A6ABEA3FFA73DF318633C720FE1BBE44AF43CD5DF0F3DFBCDE7BDD0108B3DB0BBB2BCE8F9903CE62E9F3C390DC23D555165BDA7F0A9BDCEAC2E3D1A33093D5C4CCFBBE604C63D35B943BE42620CBE17644A3DC2A95C3CEBD669BCBF47CA3D49B34CBE77E69CBD56074C3E27061DBE51F4363DCDB13B3DE73F51BDADBC27BEFA94903EDF32A0BEFD37AE3DF5CE933EFF5F8ABDDBAD99BDA2CDF83D81F401BEB8D934BD7E15103F0BAE26BEA8D484BD3023FEBBA280AF3CA572C7BD66C7B33EA23BACBD381258BE8B0C213D38990B3D65074D3C00E6A13D5D6A883B82D916BEE4140F3DE3BE47BD9420C1BC1C8B9E3D556DC6BDF521FBBD53EB913D0AB1B43DD1F2A5BB0198E5BBE1CEE03DDFE494BDD9709BBE59E48F3E273DA73D22DF60BD0D43713B4858F53D84BD4ABDD5C602BFE811F93E9B58863DBD6397BD3A497B3CF7C2BE3D96577DBD440F02BF9FA3FB3E5FE6E23CAFF08CBDA3F6993CDA7CB23D939287BDABB59DBE42618A3E09A2EF3CD0019BBCD49F043CD5F89B3D3679A9BD8E6E97BD6E3A8F3D1400233D08BC1ABBCC59FA3B84956A3DC4C0D4BDD9013F3C433E99BCA516D43C3C80E13C016DB5BC32FDC33D8DF1B5BD256CFFBDB7CDAD3DD946073E9D4E48BDDC3A2D3BEE7AEB3DCEF103BE2B11BABE4D1FC23E00DC1C3EA3080FBE8EE58A3CF5D8103E426808BE7B951EBFF32A2D3F01872A3E3A3F42BEADD9B23C31D4EE3D08C00EBEA9091ABF79E1373FBAAE0B3E413D43BE314B373BEEA5943DBB16FCBD1116B2BEA67CCA3E5212B13DCCB1DBBDB5C02ABCDBA9983D0AF9CDBDF68183BDA3C5D03D12EC8A3D555C3BBD62219ABCAD6C803D51FDAEBDE495333DA0F8BCBCA9124A3D59047D3B1871CDBC656C1A3D835500BD7C7A06BD3A7F3B3DE7339D3DB18B1EBDF5BD3EBB0042053D09C53BBCE5202ABED8036F3E3281243D71DCABBD3F6B57BCABBB2A3C346AA33B096AB0BE9389DA3E5E3E8CBB338C02BEAF496D3B9572503B37EC773C72B1A2BE210FE53E0FE8A6BC7E8FCCBDBEF66C3CB29185BB38112EBC864B28BE42BD633ED91765BC5D756CBD24710DBCCA76143C434D31BDFCDC093CAD20303D4853B23C8664C6BC00FABFBA03FA893C311B69BD8425943D8A4894BC1C104B3DA8A9953A2730083C2D3BEE3B496EF23CC52BC83C76D747BD7271C9BCB171EA3CC685B23C1580983D028D1C3E881C9A3EBDD7883E8828283E8917BD3DFBA08CBD1AF105BEE32B83BE45429DBE9F0B23BEEF282FBD53A13CBD5EE4DF3A912566BC2A7EF2BDD0A1C4BE5E2818BF202BD6BE7A4B6ABE166FD5BCA24A343D85F45D3EA106F33E2C5DD73EF215843EBDDB9B3D9CD9033CCE82863C1D58EDBCC6200ABDC46E363C5A60643D83657B3CC2DE23BBD99C11BAB247E9BC01C6BBBCC37B18BD4FF64DBBAE1B763BCF5344BCBB68A13CE32F4C3DE5DB403D4AA074BBB1415A3A9EBDE13C3540E63A50569B3DD6402E3EAD01AB3E692AB43E717A7B3EB497C63D2739D8BD39893CBEA603B6BEA986E3BEA45781BEDB63BBBD1A2CC4BDD79D00BA37CFE8BCBF712BBE534502BFFA4C3BBF4D5708BF68D09ABE00F4B93BCFD8C43DDA64A13E2539203F8968143F46C8AD3EE04AD23D73D8E93C13BA513D5FF5503C6D2DB43C8B40C23DD0CCEB3D341B5A3D590BA1BCE12D0CBC60A020BD562A60BDDAF699BDAC7303BDADFB85BCB8A320BBA72237BC2624FFBC57363CBDF25F4ABDE96A1EBD177BE3BB8127DCBBB8152C3D2D86853DDF031F3EF43D0B3E667F9D3D4F29913C4DC970BD87AE55BD6F5BFDBD053609BE4656C03BF9E4503D5F56B8BB9744BC3BE5AC9B3C382D0DBD116752BE3CD9AABE9FC360BE5056CEBDC9BDC3BC3EAEECBB316EA93DC3FC983E717B943ED01D283EA47F853DE864653D3831193D093E13BD76C5B5BD64CE4CBD4BFA61BCEF55413C008A37BCAE9DBBBB3D2655BC44870FBCA7520CBD6F2ED3BC4A3026BC3FDB07BCF3FE69BEC9ABF0BD7054E63DD74B4E3D09B9243D7FD9433D079E81BE5B4094BED0F5C63DE24C7F3E5D2F393D7853423D2029AA3BE0632EBE5FE1CB3D396BD33E3AE29F3E72902E3D4C30193D803F17BDABACA73D3DF39A3ED64BAE3E0088213E3C37F7BD37F801BE23C5FBBDF116FC3D19B6293EE58EDA3DBA8501BE528FA7BECC6041BE2C3FAABDDDCAA63D20DBA13DB7B7C4BCB43088BE76D37FBEB0449BBCB87D733D387F353DBD1E80BC7D59F1BDD00F5ABE793D78BD3E6AED3D0025B13D0C9272BC2CFC83BE963D1ABEFD95B63D3002F83CE805203C9FC0D63C422D88BE5EADA0BE5B38EA3DC8B1903EAC9C8C3DF54E603D2CA9CE3CE8304ABEB465D23D4A0DE63E53E4B03E2C65593D34DB153D4851B3BC78B56B3DBEDAA43E94F1C13ED7D7303E300F06BE52F40DBE9897EFBDC5F6D23DD8DF3D3E71000E3EDA10DEBD2463A3BED47B37BEB03782BD73F5773DB13FBB3DA5156DBC2CF28BBE40BF7BBE60401BBC17016C3DC2661E3DBBD9323C8C48C5BD58C552BEDC8E24BDB52DEC3D9BB76E3DB9FE063E48DFC9BDD1589BBDA1E7043DBE26C1BC602B0BBD1A818D3BCE7680BD0F4250BE5F4CB93CCF6AA23D904C30BD11EC173C3D8D133DC532C6BD08D000BAF198233EFC7D763D49A71EBD72B1193DEFEDC43C495B53BBEE6E943D8D45B63D4458FA3C421061BD174FA8BCCB5407BC4FE0323B6420AD3B3ACCBF3C3E5EB5BCA1A59FBDDA7AD3BB16FBE93C4C6DB7BB9927C03CE5CDC93C311BA5BD83A6F9BC8AE5713DF7872A3DED340F3DEA61CF3CEABBB4B9D4AE57BD01AE4D3D7C1C943D24FDC3BA2F495CBC680204BDB02E23BE0F75E23D84CE2B3E8CB544BC254F97BD68792A3DE82993BD8B0A80BE6F3B973E8C759B3E5FE1C7BDFB32E2BD5057483CBCA9F1BD5D4D97BEA4D7C33EADB2A03E5B9A4CBE9D65EEBD7DB8043CC30EDEBD855A65BE6780D73E75A3723EBDCE87BE6D96E5BD599422BA275199BD604BDABDF4A89A3E9FE9D33D7ACF4EBEF02830BDDD62F33A5BE64FBDC91ED3BC9206263E8360303B3616BABDC8C5733C3BAA91BC0B5B953ACCBA193D1EF8C13D6E7EA0BC9FE5ADBCC9BAA23C618F2DBC084418BD1CF440BEDC3D053E26905A3E374D403C7CD83CBDC9E32B3C60A8EABD83F498BEAE00BB3E7781C63E098FBABDB00F07BEBD84B4BCBEB626BEA382A3BEE00E033F7B09DB3E0ACC5FBE175929BEABE9B4BC328316BE3CAA69BE96FA113F8036B13E293798BEC6B717BEF74446BD69DFD5BD8791E5BD5F85C73E3831043E593F81BE9B0B9CBDA679CCBA4D2EECBC0F01A9BB3BFF4D3ED0014A3B7487DABD1F51BD3CE1592FBC33E18C3C6D00363D8F7CD63D26C584BC22AF8FBCBC14EE3C7A31E3BA1DC21B3DD7ABE0BD2A25353D834E8B3D847548BC02A1123C7C58D43C805E7E3CC2004ABE610A263E2530F93D48CADEBD6315CEBC3F79383C56C837BCED187BBE58F2573E128B0D3E6AF71CBE8BC97FBC8180D73CF9F140BCC4DC47BE49E9833EADE3F93DB44938BE93CFF33B1DA4243C4F0D46BCF5F5F0BDD409253E42ACBE3C24C90CBE1153013DF6D7D23C9726273A1E114BBDFC62983D68F197BC8D6150BD3FE86F3DC4274CBC27FE353C34F9033C70D84A3DB4EDB9BC4F3265BC9E31C43C8C7CAC3D0A499B3D1D6F943CEC108CBD3EED90BD50405D3DB232033EDCE38C3DCF4CA73C5F369ABDC2823ABE9F6A51BE26054ABDD01A8D3DAD005A3D2129DDBC3DF304BE5F9A6FBE6F1586BE9DAB01BE7F3AFC3C143D14BCF286ADBD8F4E32BE65788EBE4F088EBE76BC2ABEE236C2BCE17282BD24CA01BE163C39BE647984BE11FF8CBEC0A643BE4EC96DBD31E5BE3BB1852FBB936647BD79AF1CBE07D73CBEA96BD0BD8BD3893C80ABB33DF8A8BF3D44E82E3DDB387DBD5C65D1BD7838A1BC1645713D3719CABD470C31BD66BBBDBC84C89EBBE98DC93C082C993C773435BCACB744BD42541D3A57DAD53C219A7F3D9130703D3051593DE873BF3C0C3F57BC7D940B3DC155A03D1219F53D3BB2C93D4EBF893D620B5D3DB2160F3CC0429E3DA8B5FA3D02471A3E1711253E3AA9E93D6DCE9B3DCF2A3ABC20B0263DEAA7B93D38340A3E858C113E1E67A93DB14A813DE44E36BD0A0E6C3C81753C3D43F5873D8724963D0453293D0CE83E3D85AD46BDDD928E3B834F313C7F2CB03CF4E1BE3CBDBF0C3C77344D3CA02235BCD1F6893C94C32A3C3D408F3B75EB113D3395813C1673A0BC0949CBBBB171A93A46AB11BCA628CF3B44F98F3C9A286DBBDD6426BD41D61C3CEE6DF83B07C3823C6719C33C671B2D3C1294A6BCBE312BBDDD3D513CD5066C3C39468A3CC7C8203C6924A03C9B666BBCCD343ABDC142283C348AE33ADB20CE3B665E263C6EABAF3CA6FECFBC15DB1DBD28A6CCBB46A792BBE7E330BAC73402BCB3F22B3C5FB49DBC0FD9D6BC5E5D05BB1FB1A9BBE3E803BCB851F7BB16CE233CB84FEFBB616F9EBC74AF6F3D45A7DF3BEAA5DB3C693D833DD459783D061A2D3D7BCFE93C9C7C64BD05EF90BD4AB358BDDE0670BCD0AD393B4F0571BB2AC34FBC736369BD06FC65BDAF3847BD67E3F3BCCC26E7BBB952303BB38A6FBC3B6981BC89994BBC363C77BB71C188BC050554BCEE7F823B9C4283BCA493013D5B47973D15C6A73DE13C833DC7681B3D0759023D724E7FBB5037823C89E92C3D07DD423DD64F3D3D287EB63C5918B8BC77D893BD08D54B3DDDF4523DBC261C3D80D0EC3CCA61813BFB7272BD2F0FD5BD7E5C0A3DF6F51FBCFFD8133BB156043D5757D83CF2A6E43C2838D03C702954BD871A6FBDC6A23ABDD060A5BC6DCFF6BBCDD6513BEBB6433CFBCA1DBD2E7D14BD1C982FBD869905BDFD4029BC9A2C863C454A753CB5C6D03BD411BE3B97DCE83A536065BC000D1DBCAA04BE3C875AA33C5FF0323D8C93B03DA3DABB3DBBBA7B3D3612083D539F473DFF6BDE3CAC14073D62A1913D6A649F3D6A9A983D43F63C3D95198A3CAF26AABC99409D3DAC27B53D7D83A23D54FF943D87174B3D22D803BA581E2EBDDCC92D3CC1DEA9BCA77520BC72264C3CF9509C3BF8EA3F3CA05E803C8EBF43BDD7AF45BD93992FBD1D7FABBC73E457BC70F94C3B393A533CBCE115BDDBF924BDA60451BDA1EF15BD72CCD9BC7A53013C7ECA983C59F186B9C40617BC6F63C8BC768100BD654FDFBCDE559A3C4193193D9B70D53BF1C33B3D596E2A3DC718A03C187C8FBBD6041B3D21202E3DE4FC08BC8CE5883C1C9BA33CA59CD53C12DDE83BA123813CFEF9E63B331F1B3D9753143DD6EBA83C1ECFEE3C7028B43C0F75453C5CBE9A3B2DC328BC99FA6E391B0AA6BCB54A27BB2C97DB3C56FB9DBBEE0228BB8E4F3FBDE256AF3B50898D3DC4DD0F3C2DAB35BDCA01D738219F1F3C2D143A3C3B46193E610DA53C4AFA6ABE0209B5BC8978CC3DBFE61C3DD371943D41F13BBDC320E6BEA72CB4BD6774C53ECB9FA13D02348CBDEFA0233BE25A79BE0924343B141A2E3FDE716E3E54955BBE3EC60ABD628537BD447A833CD507C73E164DFD3DA9ACD7BEEEA74EBE30C3473DA1AD833C9A7F973DC648803C212288BE853BB1BDD09BEF3DCBD2AF3D2EF8263CDBF1AB3CC8C873BCD07613BD12D6973C056FA33C2F76C33BCEF812BCEAE4E63C95645F3DAA1267BD306273BD1E921F3D3EE5B93C2EAC273D1415FA3D2CF9EDBD0376BABEF93075BCE9851F3EA22A2A3D79C6E73C122E3CBE39A61EBF7711E2BC8DD2133FDF5E1C3E3652B9BD410550BDE73E9CBE9132E43DCC1B823F919ED43EE97689BED09ED7BDBA193EBD25A28F3D43AC103FE1E4763EB8C506BF60AEAEBECEDB39BC76C32C3DBD70B93DC338293C02DEB8BEB4385CBEBA016B3D3A07BF3D3DDA8C3C9FC6293CFDF6F2BC82C5A4BCB7BF703CC53D98BB4E81463C1DDCD5BC6B31BFBBE0CC2F3D3BAFF1BB033930BD6F0FD4BB2F83ECBB12B225BB2C6DD13D9ED646BC813A65BE0F6B22BD396E9D3D71CAB83C6DABDB3CA51D95BDE64DCFBEE55CB2BDD9669F3E1BF1883DB4B238BD31C375BBE7803EBE5DB8C63CD4A61F3FF5B06B3E90AA11BEBACAB73B6A9717BDB131D83BEEEDAA3EA39FEB3DD702ABBE651F0ABE59EBBE3CCF9FF23CDBCB5A3D59BAC23CA3954ABE26372CBD350FA33D7BB2963C55EE84312B964C2FE0DA1631C4BC0E32D4BF1632B21F45325C47FB311EFF4CB1834D14B0CC891F3179A08A31C447653143A436315C4CB531D20BE030E38CED310E2F7E31F0BC8131BFD4B63119A1D6315F2893318185D531C92C1C32DC8C8931FEF61D32A2CAAD3143605031AF271532B547CF31BEF1CF310686EC31E46FFE31EED70432D1E3F031C520AF31A6B41D32ACD9FA3121CDEE31D1512C32F6CF4432B0A13432438205326598433290200C32D8FD0132C069693272566A32E7C79332B8E472329212E7B117512AB2B31525B222AE83B1CBB383B09D855C31FD4BC6314E0F3DB219983EB2F0D8C9B1155A5AB176D030B128941CB15ACFC02F317606B2D58D15B1A09047B1538DFCAFBE747DB1ADA847B138B64D3120F15DB1FF9A69AFE35229B11C650731392860B029BCDDB05CBB38B016D08DB1CA2FC1B03A48E3B173F111B12734ECAF2C25E9AE11FE703103E9ECB065A986B13CEFA4B0C158A9AF087E8B304B34CE31DF0C6B314BDBD5B0BE014E30AA1D52B1492BB631DA0EDA31072419324D7AE4319B984DB1BFAC01B22C8767B1D108FF2FB7628C315FC74331FEB9053230F8AFB10121D7B1A9EE5FB177E707316A57513191451E31CD3385315F38E72FF6463FB128431E2F21F9EF31D235A531DAD68D31D5E20F322E239E31B1FD3931E2FD8931DD43C6316E28C6317CA6D631D63FF63148FBD331E7636031A63665317442CD31F69E2332CAEAD2316D7FF031A64F01325C0AB831F172A6318B381D32A50C4F32A98E1D32412D1432485D3332B5212932819F9B31EA3475327A87893299D19E32BF478B32F79CFEBB2293A4BB8006AB3A11AE943C4132A63C9710B8BC88904B3CD87907BC052E67BDF6379BBDF817813D5F28393E65529D3C185AF1BCB544E13C95B714BD1BD285BEE3E187BE898A223EDADA413E0264853DA78EAC3DB22F483E763CE6BAC30406BF672A9ABEBB5BFD3CD3DBDF3D3AD0833C4C414A3E9E31C13E1A9C12BD615390BE5B2C4BBE155935BD1D0388BDE3CCC1BB074A723E68C9683EBA71583D24FF0CBDD37057BDA0EAD9BD9566F2BDFA7CA53CF493DA3D89102F3DB3516EBCE7CF4EBC9E04B1BCCDCE1ABD4E1547BCE5AA053DB371503D748AC5BB0672C23C1A8C09BCB337A1BD1126F1BD870C8B3DD443823E5FA0B33DA6ACE03B8311013D00466BBD4149CABE08D7D2BE3F50153EB768873E256C073EFEDD013E73DD783EB3BDA7BD2C7A3DBF8488F4BE72D90DBC48DA1C3E6057A83D49139A3ECE0BE43E36D803BEA910E9BE510DA2BE2AF387BDFF7094BCE83B9F3D6B5FAA3ED63C843E95DF863CCAA6C6BD45E0B3BD8A598BBDD8484ABDB1B0CA3D35EF2C3E49A6AF3D1EF3913CBFDC2B3C3C89123B9C7FB1BBE3F0673C97844EBBF94C3BBC76791EBD6B7991BC866325BB717725BC845B1EBAE9E0C63DE7DB0E3E6D7527BD73088FBD15517CBCAC8295BCC6E127BE413302BECBB1463EEF22093E87C89D3BED70013DD341013E7D31FD3CB78EADBE2F980DBE30E4C03DBA4FD83DDBA0B3BC1BCC8A3DE7D67A3E5B8E2CBD39B546BE558405BE073471BC9972E5BCD92359BD9027D23DBAD0E33D53BA003DBCAF3BBC5D21BABC704791BCA09650BDC772D53B007C013D83AFD93B6663B13B3CD2993CCF72D7BCDEF5B4BCCC6F6F3DA169C03C5E4B07BD5B570B3C4572693C0CE6A3BC12A964BD2F828B3D13055C3CB6609EBC3BCA96BC56C108BB2E810F3D5AFC33BE56AD083EDC48B03DD8E3CABD3204593D523B08BD9678033E034F40BE254E57BE18E5E33E3BE142BE46F62A3D2F0B0DBC30CF553D19815F3EA8CA27BFFD6FB73EC221133E84C5F5BD3B97C93CDD5D02BE4DC3A63EB66C90BE945179BE7040A03E627754BD02FB63BB3F2D313CBC42843C9E9E313E73AD84BE504B213D67EF0E3DEA2126BCF6009ABC4DF204BD2EDE4E3DF587AE3C7E63FCBBBC43563B214839BBE99882BC8DE589BDA3D1913DE040CB3CDAEC4C3C97A24FBB989B883BF64A5D3D1E3A81BEAEB9F23DB93BFD3D3752B2BDE92D9B3D95CEC5BC21D62B3EB27E8CBEA21C9FBE906E0A3F139E3BBE9B5B123DB9F4CA3C8359E03D19EC6B3EBFE757BFAC93BC3EB276613E3B4A0FBE3C77263DC434C6BDD190DA3EC517B8BEFE9FC0BE8C36B73E02412BBD3481993CA3E2EBBC740D873D89F0673EB09AACBE6C2B4A3CD8205D3C2DE1E8BBE87E14B9FB5BD4BCEF33B73C09E8A13C240D28BC74CCBEBBE928473B97C9C23C568A89BC730B063C47BAF6BCFEDC083D5828193C6A4A4E3C26B3713DE789AFBDF497BE3D9AAE0BBD6857B3BD676EAF3D2EE0A0BC60F4A53D8F5333BD27A7C9BD82738E3E29EB91BE53445F3DE32BA23C5070D2BCA7268C3E4D91CBBEE7489F3E1AABAABC525822BEFD0B123D22683BBEA877843E5A688ABDBEAA12BE91B14D3E0C61BCBDC20DA83C6EF969BDEE38BCBD0906583E5D62FBBDA100043D5BE4D23B9E885E3CD8AF51BB6297ACBC7BD2A5BC8E57933C75D3093DC50117BD7D33133A6EC1BBBB219D6F3BDB60283DE2D5A13D4951133D37C7E0BD32B0A8BD0336D7BCD5D4BABDE0D642BDFE00173E1D5B8F3E9D5B4BBA6BF115BE0FB3B23CE4F2A0BD2C5CA8BE381A8BBE9834A73EFD379F3E0A9D2F3D26DA7D3D6F96193E812971BD64411BBF96A785BE7B2E483E59F0213EBDF0AEBB5C53E23D95A79C3E70739ABDFE44ADBE43FDD1BD5170013DC88851BDBC9165BD6BCEF63DE3FA2D3E083638BCF87288BD873F9CBD027398BBB2E64F3C35A92F3BCAB01A3DB954183D1DBA35BDA9638CBBC0783FBD3FC3B23AC2CB323D5C1DFD3DE5FAD93D09EEA0BD526AB2BD80E699BDFC8807BE8F02BCBD0DF03E3E874DCA3EC77CBB3D0EC6C9BD79C8D0BAF25109BE8186EDBEC370C3BEA327BE3ECFC8D63E6BC9003E76C2A03D4F7C1B3E61E11EBE19F556BFEEDFD0BE464B3C3E5E5C3E3E667C4C3D25AB3B3EBA01B13E654A1EBE9AC6FABE75BC39BE26516C3C37A85BBC9ED8913C751F413E7725493E9BD70BBD7CF5BEBDDE9E9FBD0D77DCBB7C6C12BCE93CB2BCEFF81F3C9925153DF38631BCDDE6CB3C098ADABCEDDED9BA4470673C475DDA3C0B08043C1576ABBD210940BDDFBBD5BCC2EA58BD6697FABBD233003EBF67443EA99204BD6812D2BD0354AF3BE39D0CBD29824BBE62961BBEF216953EADA0533E6CEA0B3C632C123C54E99A3DCC1DE1BC5B14EBBEBFF93FBEB78E013EBC3D823DBE18A23963A31C3DD9C1633E16D7A4BC112B75BE37B368BDE1BBD93CC0687F3C671F53BD0A39153D2AD8C33D55AD93BB0FFE37BD215324BDDAC9BD3B7917753B2C62A43CF47743BB5BEEC2BC8DB1F9BC4F03BC3B6D29B7BA140F49BB3D5078BC13C0A5BCF69ADDBC52BE06BD0CAA00BD7771EFBCFA520FBD5267CEBB2B8C3B3DB8B7ED3C3704C8BCCB08FFBC05061DBDE7B137BDF136F53C768F053ECC681F3EF97E353D9CEE33BCBF3741BD687F47BD4EF3C23CEB9CE83D0E83ED3D4B31DE3CC61928BDD23084BCA275C5BCAC67483A2A54D43C16CE9D3A86F35BBD164AAFBDC0DD14BCA76F8A3BF6A3293BF6D9253CD49214BDE73191BD7D8DEEBDDF3659BD06B168BCFDCBE1BB9F24B6BCEB8DCFBCF4A478BD287463BD694EACBC5C55593D9CB27B3D9FAD973DAC86983DEA8E113DD0D6533C9E7B8CBC3B0A7E3D91100B3EACE6613E51F7583EF2BAEF3D1255893DB2F504BCC7ACB73D22A0603E6F37B43E3342C23EEE176A3E13CE063EFDFD98BCC33AAF3DD4D2513E6F22A73E09DCAA3E7A0F5E3E1F33F03D742E48BDDABE293DB9AADB3DC341343E960E2B3E1063B73DB68F593DD62AA9BD85490BBCD581E33C956BAF3DA5B8853D1151D23C0C6666BB3CA3443DC205AABCC107623C8F09213DCCF97A3D10A7B93DC7D2933DB900333DD1FC07BD89F46DBD805E92BD64106BBDB12AB03CA806E23C64F9923D5A8035BDE2C01EBE1F0B7ABE8B9385BE26DF07BEE13549BD6D74923DEED0BDBD353D82BEFB55E2BE86BAE2BEC4038CBECD20F5BD37555A3D4AB4B9BDC7D97DBE9485E8BE6136EDBED88C83BE606EDBBD95E7C23D549CFABA7055C4BD2FFB6ABE301468BEA97A53BDE2247A3DC6F0A53DC117A8BA2D2F1DBD11C58EBD2EDB40BDB08F973D69700F3E33B12DBC6E37BF3A8839843B401349BBEC69D1BB12FF933B98D7FABB3EA49EBC4872203D404550BDC8EF8DBB1ADE743D2F2F80BD8903E5B96680AABC071BEF3D0F954A3DEB87A4BE6623243E0DD5BA3D9A8F7BBD96AAAABC7480F3BD9BF3023FBA0C1DBED72CDCBEA5243C3E78FD583C3C33DF3D10FF90BE3425EE3B8CD82D3F5DAE78BE013B11BECD71A23DC91CC23CFDB1AC3D8665E7BE0BED133E95E6953E73F708BE0CAA2FBB542CF9BC0117D13D23A33A3DC5B334BECA808F3DB331D639D2CABBBC4908153D9A9C3D3D99D4B8BBDAE290BD14B271BC5684E93C3395603C3B953EBCB192BC3D427F0ABDA1868DBD5170433D6E612EBDA6CA1F3DD9783DBD317D2D3EE664083EE0A6DCBECAB2843DA947D63DF8BEE1BCB922B9BD46B50EBE3FDE403F4815BCBD0CA521BFA4E2C33DB41B8F3BB83B823D385DD8BE4981FE3D460A803F1FFE74BE5B907FBE58CA213D792A9F3C7628F6BC210914BF8207873E01B8E13EE5F8E4BD9B55AE3C9F81C13CDFBB843DD6E266BD132686BEBBCABD3DCD0C063D38E4093DDEF0A53CCD05CC3CC47D763C5F8E0ABD727BE9BC0800013C7394B93BD76252BCC6B1353D4EE8B0BC01EA9C3CD877133D8C4C73BDA14F893C38EF28BDD9ACD03DB5A7693D717980BE649F1B3E53297A3DD52C33BD6D482EBDBD2418BEA559E43E8F4B00BE03B9BCBE6C102A3EC2112D3BEDDBDC3DFD0881BE985253BC5D2C193F7C7261BE09AF05BE77DE073D6FBFE83B48C0B03DEA7EBCBE00D3D43D44B2753EB43CDBBD11CF5FBB8B3A67BC87EB0F3D2DCF643DE6E822BEFC8F843D5AB0CF3CCBD6B23CFF75CE3C71C3503DE29E093D624DAA3C99420A3BA061D0BC32301DBD4304153D786C633DAEBBF73C0101DE3BEFBAAABC42BE1BBD072B37BDEF27CE3C409FCD3C249190BC91611BBDEDE535BDFBD93EBDCCAA42BD7B569E3CE5528E3A89633DBDF7C958BDEAA926BD24A601BDAA9AD1BCB81D2C3D99E5863CF05BD5BC95760CBDADB3BEBC2BD290BBCA0C2F3C4FFE1A3DBCF2C13C164109BC541A5EBC9B6E29BC807711BACE236D3C349EDC3C5091D23C326F063CB7DD673CF68A823CE35F453CE35BD93C9A8BF73C3362423DDE120F3D9B44CF3C58D9893B296BC9BC3C6412BD5BC6C63C8D23203DEA3A943C564D85BB04C40ABD99CF42BD84D961BDBC0E4E3C49893C3C99EBB4BCBEB52ABD42E854BD9A195FBDEF615CBD24DFA13BE7F502BC73F03FBD95EF55BD5BC136BDBCCD18BD5DC9EABC116B043D6794333CBB5AC4BC1E3000BD1F16B4BC8EADCCBB8A33043CF0BD013D1746BA3CB0413B3A76A58FBBB37E4EBB742FD03BDF30AB3C212CAF3CC7D2AF3CE0885D3CE625A63C6D82963C8D3C5A3CD1CBD63C522E5ABCE729BEBCF11B85BC3CF029BB946102BC0BA0CEBCCF3E12BD297703BD6CFA07BDB063D9BC7DD8AABCB9DDF1BCB66F0DBD98A942BD4EB5F6BC4BB205BD648111BD7ABBF0BCBC8FD4BC5B9CCFBC57E412BD2954FCBC737814BDFB212ABDAF50F3BCAB608CBCE75877BC635C9EBCB02E89BCF234E9BC1D5CF4BC1E00B6BCAA4672BC9E31D4BB62B39BBBF2F990BC660BE1BC9E94C4BC603397BC6E59A4BCC6C290BC43AB68BC6D6516BD66774CBDF9572BBDCDF6EDBC1C5AF9BC9FA91CBD86FE05BD9659EA3B7185583B76A9BE3C632A0EBDEDA4623D4709A3BC141711BDB5DF3CBC35012F3D7DD83F3BA325EFBD5DD0653E8323DABD11A7DCBC55CBE0BBC321B53DFB8671BEAA7D203E8EFB873EFDEBDCBE9926113E2852093C9378C13A745033BE25CC043F33EEE0BEC9EF53BE05958B3E5DF39BBB915769BD2F98143EC8E61B3E4DD419BFFDCEDD3EF89290BC67BCD43BB067D9BAAEDCEB3D691F5EBEF01B56BD0638803EE07021BE09D0A93BE6DBE9BB9DC1043CF8C9EFBD1CA9053E0FCB063C738A06BDFA097DBA5933F1BC61C003BBF1E4F6BC8FDFD23DFE9102BC24C194BDFDD913BB039AE83CDDF1A4BCA1668EBDED8E983E518C36BEF28695BD4F455ABCF1BC9D3D9DBC52BE3FCCA23EA5BB883E88F61DBFFBA6163E5E6554BC6AE607BD521DE3BDFC2D283F973B27BF6484C0BEA199B93E292625BC5CE066BD2DF2653E5E06093ECF2457BF30CCE53EFFB0D03D67FFA53C3081833CD5E41B3E957FA0BE9D7507BE220BB03EED8FAEBD51A82CBC631E87BC45531A3B8A032DBED2D2083E14F22B3DAC8DCBBCF459B83AC20684BCE902F03C38E2FBBC4A562A3DD67B8CBAC690DEBC8513A3B7CA724F3CEECAFE3B72B305BE832C353EE95F93BDEBA944BD413A96BCC6B1AC3D418634BED1B2BD3DBD23713EA1D3B3BE63B4C03DCC704BBBB53D6FBAF49F3CBE2ED2DE3EFF42A3BE0A3F01BE5C32433EF3651EBCF11576BDCD95CF3DB311273E18BCE1BEDEB4B83E40F1B9BDE4326E3C1EFAC0BBA846EC3DB5E312BEA5EC58BC098E113E546B00BEF99FE6BB65BDF4BB3C54973CBE67E1BD12E0843D02E11EBDF461053C0BD5533C9371A8BCA808C1BCB672B33C01A459BDC043DBBDA7F1093DA2C5763CA73482BC4AEDEEBC0B29193D2F5F9FBD317B73BE17584EBEEB840A3DAA32923C83C66ABB1076033E4CCE4F3DCC833FBE597D8DBE1AD2253D91E78A3D9A65FE3CF4E82E3EA52A453E764865BDEAC563BEB2EA6FBCEEA5143D7424513D8129133E6AEF353E0C4D713C4B1023BE15EF51BD7D134EBDD3829E3B09BBFB3DF7C8F83D0FC01F3DA5BDB0BDEF2C87BB3AE627BD5EDB5FBDAC6EAE3D667BFC3DD083A43D41973DBDF6BBB13AC348D2BC5E83B0BCC63E8B3C63E67BBD8D68FFBDA84B123DE9ACA23BC78CAABCE5C802BDE75BE33C4C9AE1BD1BA09BBEE11A83BE68CF2A3DFCBD083D7A73583C679D183E91A07A3D81D575BE8F20B2BE999C433DE9E4C73D063F6A3DAEEA533EC3E7753ED21B9CBDFD5196BE4B1E5FBB997CA73D9574B23D98A4313E828B693E3EF3EB3C4D7043BED6E476BD1BFFFDBC732B9E3CB33C0C3EFE2C1D3E904B693D4C0DAFBD162350BCEF252EBD903864BD821D9A3DEC0A073E746FC03D4543FCBC95BE70BB41BC5DBCC9AB5DBC606D413CF28BB7BCBA2619BD1CD60A3EC395D5BB2477B6BC857244BDC6FC7DBB670987BDF17414BE48925FBDC96AD63CE544D03B70FEF9BC4156793DB0F9163D3ED3E9BD8CA5F1BDA8AA083D2CC3593D50E666BADCEBAE3D4E3E0B3E3ED0EBBC1D71D7BD3A2868BC20431A3DB9FDC43C6166473D830DBF3DF48656BB8E97C5BD03BCDCBCEF5AA0BC896C6BBA97C8453DD40B453DF346683B919949BD7601283CA56646BCB74612BD4DEB043DF0EF6D3D6971183D6147D2BC42000DBD0A7FA13C9C5DD53C8E87DE3B46081E3C15ABAA3CBAC41FBD0DA66CBCA5F8A83DE97BF63DCFEA043E1830373E3FD43F3EF107093E2634D0BC43F5143D1A0C863D5207C23DC130EF3DF77EFD3D83E0E53D38DF0A3CCA042A3D9886723DD644883DBD30A23D6BA7AB3D918CB43D418A1BBD72CF62BAAB87AE3BBC614FBC2411E2BB4121923CF8AD5C3C18DB36BD204ED7BCD1661ABDE07FA5BD094BA8BDE5071EBDC0FD03BDC475BABD07A200BECA170BBEFBF73EBEDF8553BE352C41BE459D3EBE6A5698BCD4C6273D67AF633DBF43453DFF6B353D8C19183D7C51D9BC49675D3C75A8F53D7D82263E0D553F3E92A1713E0E87693EB2902B3ECA77C3BBCBC2763DC143C43D8DAD0E3E6A91223E2AB41C3E88FB093ED30AC23C9292883D9C42A63DE8B2BF3DD126D63DC1D7CB3D9CCDBF3D147D1EBDB79C25B9AFF25C3ABB99C1BCD78690BC9CA4543C227476BAE78E66BDC2233ABD55BA8ABD57DBFBBD984FF3BD468A93BD75F461BD0599D2BD331D19BE355132BE5C636EBE3FBC7EBE2EA163BEE41457BEAF8E51BDDFCC00BC197B65BC3E8666BC16571FBC61ECB1BC9BC7AABD40FC82BC0C66913D35EBBF3D8AFDF13D993B383EEC932F3EBBC2E53D7C3FD2BC0CB5D43CA0E3193D7C40923D422CC73D816CBE3DF4E2A83D4D5D523C46A62D3D99C1203DEB7D413D29B04F3D9FE53D3DC21A403DED66B2BCDC45A03C4120673C9C0E10BC8ABA7EBC0782DFBB5FDEA4BC8CBD8CBB303BBA3BBB14A6BC4F947BBDE30177BD71C8DDBCCA48A6BC3D48FBBCA80EA1BD6950E0BD064A19BE369C22BEF3550DBEBDC004BED978523A9CB46C3CB72E44BC5754923CF47FF338F2DB083C025E8C3C3F8571BA67C1EC3AC3E6D93B6FFEF63BD95A3ABBFF3950BC8617A63CF2CCB13C4A9D9E3B3E5EF6BCCD6AF2BC64DB903B5966C83BCB31C13A4B77E33C6CBECFBD7F121ABE08E6E0BD27DA69BDF22D1E3CE04203BC3056BB3CC64B03BE368D43BE8A760FBEA9559EBD89F1AFBC1C6FF5BC40278F3D61C0FD3CE86C40BC5591F43B3691913C6828C43CD42EC23AB626D53C0DFD8F3D02E68C3DC31A473D1724A13CF7A2523C4764233CA8F9833BEFAAB5BBE3ECEFBC56BD57BCC84604BD39D46DBBD59A753C7C8242B80DF09FBCE240C7BC20A1CEBC5C2CEEBC462FF9BC7D91C93B8B638C3C1BD7C3BC85158BBD315C77BD61E2B1BC8E7C07BC8B1B5ABA5131E83CC4500ABEE6784BBEB0ED21BE00EEC2BD548407BC49BA84BC6B87093DDFC31DBE213B75BE6AD044BE8343F3BD007210BDBBE3D6BC4B26A03D6D8E903C772724BD7402D0BCF72BF8BBAB13B63C5DF0CA3B8931E63B2766163D47F21A3DCEC3C83CBBF8AFBB0D16873C71A23B3CA1EDC9BBF9CAA23C4B7AB23A0DBAEA3CBB78693CEB4FBF3CBA56913C6DCF863C2EB10A3D02151A3D2D6B3E3DC9BE273D3353253C90C7BD3CA1D6223DABEF493DFD5B0A3D0E63233D88396E3D9E39133DA0ED8D3C8EE6673DA284E7BCD3DE84BD330205BDC6DB6F3B0BAB563DD064C23CCA8B193DEDB18ABD011704BE17AAC6BD0A8F2EBD1E5A593C8949213C0E992A3D6B09943C2945FABC99A3DEBC63755FBC96000B3C99D277BCC04826BBA368143DAF38EE3CAA42DC3BE42E95BC370115BB084E89BB12CF653B61B8B7BC6B55273DFF8980BD2611423C453D37BD88FAF53C12C40E3CCC316ABC340F4B3DDDFD623CD122A4BD0DB9C13B78DA4F3DD695E6BBA56454BC9C9670BB2AB60D3E6DB785BEB8C8FA3C59AD883D67C84CBC7630863B257B3FBD2BCCB23E3838D0BECE7740BD848D403EB80CBCBC520841BBE2AFB0BDB4C7D83EC15CCBBE220E53BE1623743EB08C3EBB90DE523B1D9B95BDB07DA53E2F7D64BEA68B51BEF23B563E1575A93BF067643C0C0E9FBC51EE0D3E7361CDBD493D38BEB58EE73DD284A23C76534ABCCE7DA83D04AF29BD46C5C9BC196C50BDF3BD1B3C74E1253CCE4D27BCE3E4E23D34290A3D74FA0BBEB293EFBB13C4603D0FCBC5BCDF1EDCBC546BA23D8D28503E2124BFBEF324C1BC4B17CF3D9A730ABD8EA280BCCCCD6A3D02C5063F584711BFE4EB2EBE8973833E6BD4FABCD32FFDBC9B811B3BCDC2283F73190DBFA3B8C3BE8EBD983E5DE299BC57ABDABCC28810BC7F24033F83879DBE8605B7BEC58D763E532CD33BC1697BBCE7077F3C246C7A3EF4C5F0BD8A867DBE4E59B33D55F05F3C63F6BBBC58E8673DA82545BD037B92BC35F7B2BC8920F7BB8885133C57DA32BCE332873DB541EE3C651489BDEBC1283D69409E3CE3017ABCA7601ABBC5A73D3CC579083E5FC858BE423F7B3DD2E932BBA75702BDA1B0753C081511BD4C93AE3E66B19BBE6ADABFBC8A69983D088E2EBDACC3DFBAC56290BDCDF2D73E741A8EBE36AF1EBE59BCE23D3FDDD3BC5ECC27BCE5358BBD6979A13E3C9B10BE4EF715BE75A4CF3DCDE260BB2EC90DBCF9F6A5BC3F15183EFFE429BDA895CFBDAEA70E3DC5A9123C1B8340BCA0C912BD2D0D90BB4E7123BC3BD4903B1B24223CCBFBADBD748ABBBD19E788BBF213863DE69A253DD1CE903C74D52ABCBB5322BD74ACAD3DB721843E861B713EBF32583DC62ECDBB6CD137BD0531B23D5B7E7F3E1F42553EB73E02BE489EA1BE9F02FABD45FF67BD5FFD023EB607053D4F2E96BE8102FFBE4B2724BE16C4DC3DAB95673DAB883EBD881659BE42C685BE0DBF41BD9FCA7E3E2B3B0C3E8261073C0E4463BD0F53363BE1CBD23DF5EA103E1BB5CC3DB75837BD9C6A97BDE9C3883AD58A813C174F013C002DBB3C90D9B13BE59D2A3BA55A0DBC4BFC41BD9665A4BC49E69C3DF1B8003E8AA3893D25E5463CB4ABA7BCB259D83C2C5E463EDADDBA3EC1698B3ECCAA753BF82FA6BDDFA1A1BD4F23283E0468AC3EFE44433E76DC99BEF4E604BF72A673BEBD2FB6BD3181103EA80760BC5D3CFCBEDE1A41BF382F91BEC9D1EB3D33A6E03D5FBF01BE90ADB0BE4A93DBBEFBB1F7BD31E6A53ED018693EA4208B3D38C3D2BD3A3224BCDAC90A3E1D4F7F3E9099863E4CAA8C3D2EC8C8BCC61DE03C46D1CF3CA04D373C2D6C01BB76AD06BC3FFF6ABA980C81BB0E4493BCC4E444BD06A69FBCE776CC3BED41B23C9B74013B94E25FBB5AC2C6BC435C383DC1DA1F3EEAA11A3E2B9C2E3D131E9ABC0B03A9BC7641C63C47EA233E149BFD3D36C403BE3A4D83BE391CF7BDD6E22BBD41C09A3DF275143DC0BD6ABEB997C8BE2CB3B3BD8178AD3D4ED5693D010C85BD43D139BE318E5FBE8E4DB8BC12FB603EBC68A33D852B143C8E7069BD9122A63CCFBDD03DC4B9ED3D3DB4E23D23D392BA16DDD7BAA6867DBD0773F7BC1A7E9D3CB972983DD1D9323D3628B5BCB3E82CBD86E51BBD9B24C73BAA953B3DED1CD43DD3AAC43DB0B4723DCF6AF53C9D13F3BC73F8353BA395A73C3EA29E3D250E753D60AA293D3584BD3CCC844DBC36D6C93C4BA4553C8AA6613D296E0D3DDF711D3D4C09DA3B443B433CCD303B3DD2E0373DEB04B83DDF3A423D2B77B63C5533B4BBBCFC04BD5F0A48BC3169B43CFEAEC73DBAD16D3D56DEF5BB5DAD74BDE66931BDCDB4E6BC76BEC1BB64A0D03D9A2AB53D854A0A3C78E04CBD6D0D7BBDF97065BC68248D3C0966603DAE4F963CBDF805BD162E28BDE20C01BD995FC83C506F3A3DA91BAB3DB4D1883D8D3A3F3DCF2E083D5EF503BD12B9A93C3739BF3C92C8703D8372103DDB69153D7C2B003D310D92BB4669473DDDAEE03CE1DB5C3DF5C1003D7755573DCBC5F13C4E52913C68057A3D609E453D45E09B3D87C41A3DA7B2EC3CD51E653C1B6B32BC45DEB43C5F0D2F3D05F8C73DAFC5763D54B0843CE9AD4CBC678DB6BC4D97583C771BFD3C5BDCFA3DAA0FD53DDC53243D79AFAEBB20BDAEBDF0802EBD1F4CDF3B08EB6B3D71E9FB3CC99D0EBDD9924CBDD653EFBC13CE943C9B45513D1E74C73DE7BAB83D8CE15A3D3E88243DB68F23BDB57D91BA19931D3C39164D3DC189C53CF16ED73CECCDD03C78A0D4BC62EB733C5607EEBB911E1F3CD78ADFBBB9F6983CFDF4853B25FE50BB767BF93CCCA9853C1CD82B3DD866B43B0F6BCDBB9FAB0ABCD95FBCBCA5E238BB7114BE3C9FDE9E3D8EFF123D6F3B6ABC04CA04BD3D0722BCE726E73BCBA32E3C0CC0BE3DCA5F903DC8ED543CCCAB08BCA0F000BC771CA33CEE1D0C3DAB04173D340FEB3C5F0B523CF09E943CBC15103C6CA806BDE24712BD721DDB3C678C943D65F63B3DB68F563D95F413BDEE44F3BD0FF80CBE0B67A3BD927D0A3D61DA1A3DC3B8DC3C51703CBC406795BD1096C7BD8DED92BDF3400B38E22CB93C79F29D3CC2E68D3CC7B9813B07CA06BC4BC95FBC9C81343B8005963CA18A833C1A0E79BAC294863CA58A8C3C2FEDEB3B14AC5C3B5E3FBB3CE7712C3A5644CA3B015FDE3C36F36A3CCAE4443C409AF83BCCC3993CD9FC7F3CD0ED5BBCBCE504BACAA4043C335A773B51C3C7BBC84A173C6E07813CB64396BC533A8BBD6EC390BD0C0E64BC7D93F43C0D27D73C54C0C23CA3A75EBDF02416BEE10026BEE923CDBD0606413CF206053D9A47443C15B6F4BCF8A6C9BD0D87EDBD9FA1A2BD8D0224BC0B9FC73C3627253CE0605B3A23E28FBCB107A0BC99A767BC879987BBEBFEC93CE93B533C5AA125BAF622413C113FCB3C94A1A63CF23AC83BFC9A203D696D1E3C8E60EBBBD346DB3BA5C3AC3B1D77BA3B3F4AF9BB8741DF3C6248913C541079B983AFA1BBDCAC163B4F2A89BC1E6F44BDD341D6BCBAB7C0BCDF4AADB9BDF352BDE1AA75BD6587EABCF8488EBCD92DBFBCC7D418BD50BFB9BCC098CBBDC7E2E4BDB5C09FBDBF1840BCF43409BC115C26BD324FA839747E71BD1DAD8ABD916562BD6518EEBC87193DBC507507BDCB603B3CDD9503BC5006C4BA06E48CBCBDCE0BBD4EFA0EBC92B9C0BC3879413BABA7313A844AA33C07DAC93B733DB4BC7FB5723CE7596DBCCE589CBCD716F1BCA7BDBEBCC945E9BC620347BD7BCC55BCC89FC7BC1EAB14BD09EBEB3B97789C3C5993173D8793A03C2DA3733CE5B48DBC7E3735BC3F71AF3D05B6013EA5D5C23D2B2F613C50D666B8A716F7BC12DFE73D18D03E3E047F4F3DA02A33BE877C31BE418A93BDE1E47FBDD0360C3EC0761BBD4100C1BE9542CABEC00270BD8435B33D31835A3D995759BDABFF83BE38F288BEDFF4563D001E893E97E2123EF8DF613D591AACBC6381F5BC66CFD13D0C588F3EFF6E553E2D0C88BBD8211CBD637FB5BCB2D64A3C4BA6AC3DF0CDAE3D094938BD616616BEA224BABD15D8B0BB5E58063D74B77D3C49FBEA3B95CAFDBB431C463B0704933AEFD07C3D3390183EFCF6153EC0D1823DF6B9ECBC46B3A5BC5E8816BC4D55253EB0DF553E08A0D1BC0F03A2BE80A98BBE9CDCDBBD0CF780BDADF3913DCC0742BE6E8F1BBF7D4F13BF822ECBBDBEACEC3D7A33A33D1A850CBEFD37D1BEA561C5BEE6B8AE3D3D21D13E3E27863E1E260A3E884073BD889F7ABDAB5F113EEF4EC63E8231B73E5126BA3DFBF4E3BA8BCC003C23386F3D0F111D3ED54A333E25B2403D21C0CEBD098AC8BD6F1EBABBD8F45B3C28C5D8BCD6EF37BC3A11933B7D6F073B7FC4633C0215D83B1910393D97D3763D18D8903DD2656B3C0037A6BB47BA843B2B55623D48E6FD3D40EB303DAB0804BEE65414BE708D98BDACA76BBD6EAF5B3DAEDB3EBD1A8C90BEFE0695BEF5CA46BD8C7A713D80A00B3D151401BD3A4227BE35BD21BE2B38CA3D5B896A3E101DF63DEC73933DCE4E2BBC3B6D93BA4339AD3D8930473EB343213EDA63B53C183125BC3A619FBBCC0DA4BBFFD9143D725C263DB091C7BC6ECE91BDE4C788BD">
  ml_program.global private mutable @global_seed(dense<0> : tensor<i64>) : tensor<i64>
  func.func @forward(%arg0: memref<1x3x224x224xf32>) -> memref<1x64x56x56xf32> {
    %cst = arith.constant 1.000000e-05 : f64
    %cst_0 = arith.constant 0xFF800000 : f32
    %cst_1 = arith.constant 0.000000e+00 : f32
    %0 = memref.get_global @__constant_64x3x7x7xf32 : memref<64x3x7x7xf32>
    %1 = memref.get_global @__constant_64xf32 : memref<64xf32>
    %2 = memref.get_global @__constant_64xf32_0 : memref<64xf32>
    %3 = memref.get_global @__constant_64xf32_1 : memref<64xf32>
    %4 = memref.get_global @__constant_64xf32_2 : memref<64xf32>
    %alloc = memref.alloc() {alignment = 64 : i64} : memref<1x3x230x230xf32>
    affine.for %arg1 = 0 to 1 {
      affine.for %arg2 = 0 to 3 {
        affine.for %arg3 = 0 to 230 step 5 {

            affine.for %arg4 = #map(%arg3) to #map1(%arg3) {
              affine.for %arg5 = 0 to 230 {
                affine.store %cst_1, %alloc[%arg1, %arg2, %arg4, %arg5] : memref<1x3x230x230xf32>
              }
            }

        }
      }
    }
    memref.dealloc %alloc : memref<1x3x230x230xf32>
    %alloc_2 = memref.alloc() {alignment = 64 : i64} : memref<1x3x230x230xf32>
    memref.copy %alloc, %alloc_2 : memref<1x3x230x230xf32> to memref<1x3x230x230xf32>
    %subview = memref.subview %alloc_2[0, 0, 3, 3] [1, 3, 224, 224] [1, 1, 1, 1] : memref<1x3x230x230xf32> to memref<1x3x224x224xf32, strided<[158700, 52900, 230, 1], offset: 693>>
    memref.copy %arg0, %subview : memref<1x3x224x224xf32> to memref<1x3x224x224xf32, strided<[158700, 52900, 230, 1], offset: 693>>
    %alloc_3 = memref.alloc() {alignment = 64 : i64} : memref<1x64x112x112xf32>
    affine.for %arg1 = 0 to 1 {
      affine.for %arg2 = 0 to 64 {
        affine.for %arg3 = 0 to 112 step 16 {

            affine.for %arg4 = #map(%arg3) to #map2(%arg3) {
              affine.for %arg5 = 0 to 112 {
                affine.store %cst_1, %alloc_3[%arg1, %arg2, %arg4, %arg5] : memref<1x64x112x112xf32>
              }
            }

        }
      }
    }
    %alloc_4 = memref.alloc() {alignment = 64 : i64} : memref<1x64x112x112xf32>
    memref.copy %alloc_3, %alloc_4 : memref<1x64x112x112xf32> to memref<1x64x112x112xf32>
    memref.dealloc %alloc_3 : memref<1x64x112x112xf32>
    affine.for %arg1 = 0 to 1 {
      affine.for %arg2 = 0 to 64 {
        affine.for %arg3 = 0 to 112 {
          affine.for %arg4 = 0 to 112 step 8 {
            FDRA.kernel {
              affine.for %arg5 = #map(%arg4) to #map3(%arg4) {
                %5 = affine.load %alloc_4[%arg1, %arg2, %arg3, %arg5] : memref<1x64x112x112xf32>
                %6 = affine.for %arg6 = 0 to 3 iter_args(%arg7 = %5) -> (f32) {
                  %7 = affine.for %arg8 = 0 to 7 iter_args(%arg9 = %arg7) -> (f32) {
                    %8 = affine.for %arg10 = 0 to 7 iter_args(%arg11 = %arg9) -> (f32) {
                      %9 = affine.load %alloc_2[%arg1, %arg6, %arg3 * 2 + %arg8, %arg5 * 2 + %arg10] : memref<1x3x230x230xf32>
                      %10 = affine.load %0[%arg2, %arg6, %arg8, %arg10] : memref<64x3x7x7xf32>
                      %11 = arith.mulf %9, %10 : f32
                      %12 = arith.addf %arg11, %11 : f32
                      affine.yield %12 : f32
                    }
                    affine.yield %8 : f32
                  }
                  affine.yield %7 : f32
                }
                affine.store %6, %alloc_4[%arg1, %arg2, %arg3, %arg5] : memref<1x64x112x112xf32>
              }
              FDRA.terminator
            }
          }
        }
      }
    }
    %alloc_5 = memref.alloc() {alignment = 64 : i64} : memref<1x64x112x112xf32>
    affine.for %arg1 = 0 to 1 {
      affine.for %arg2 = 0 to 64 {
        affine.for %arg3 = 0 to 112 step 16 {
          FDRA.kernel {
            affine.for %arg4 = #map(%arg3) to #map2(%arg3) {
                      %5 = affine.load %3[%arg2] : memref<64xf32>
        %6 = affine.load %4[%arg2] : memref<64xf32>
        %7 = affine.load %1[%arg2] : memref<64xf32>
        %8 = affine.load %2[%arg2] : memref<64xf32>
              affine.for %arg5 = 0 to 112 {
                %9 = affine.load %alloc_4[%arg1, %arg2, %arg4, %arg5] : memref<1x64x112x112xf32>
                %10 = arith.truncf %cst : f64 to f32
                %11 = arith.addf %8, %10 : f32
                %cst_12 = arith.constant 5.000000e-01 : f32
                %12 = arith.mulf %11, %cst_12 : f32
                %13 = arith.bitcast %11 : f32 to i32
                %c1_i32 = arith.constant 1 : i32
                %14 = arith.shrui %13, %c1_i32 : i32
                %c1597463007_i32 = arith.constant 1597463007 : i32
                %15 = arith.subi %c1597463007_i32, %14 : i32
                %16 = arith.bitcast %15 : i32 to f32
                %cst_13 = arith.constant 1.500000e+00 : f32
                %17 = arith.mulf %16, %16 : f32
                %18 = arith.mulf %17, %12 : f32
                %19 = arith.subf %cst_13, %18 : f32
                %20 = arith.mulf %19, %17 : f32
                %21 = arith.subf %9, %7 : f32
                %22 = arith.mulf %21, %20 : f32
                %23 = arith.mulf %22, %5 : f32
                %24 = arith.addf %23, %6 : f32
                affine.store %24, %alloc_5[%arg1, %arg2, %arg4, %arg5] : memref<1x64x112x112xf32>
              }
            }
            FDRA.terminator
          }
        }
      }
    }
    memref.dealloc %alloc_4 : memref<1x64x112x112xf32>
    %alloc_6 = memref.alloc() {alignment = 64 : i64} : memref<1x64x112x112xf32>
    affine.for %arg1 = 0 to 1 {
      affine.for %arg2 = 0 to 64 {
        affine.for %arg3 = 0 to 112 step 16 {
          FDRA.kernel {
            affine.for %arg4 = #map(%arg3) to #map2(%arg3) {
              affine.for %arg5 = 0 to 112 {
                %5 = affine.load %alloc_5[0, %arg2, %arg4, %arg5] : memref<1x64x112x112xf32>
                %6 = arith.cmpf ugt, %5, %cst_1 : f32
                %7 = arith.select %6, %5, %cst_1 : f32
                affine.store %7, %alloc_6[%arg1, %arg2, %arg4, %arg5] : memref<1x64x112x112xf32>
              }
            }
            FDRA.terminator
          }
        }
      }
    }
    memref.dealloc %alloc_5 : memref<1x64x112x112xf32>
    memref.dealloc %alloc_6 : memref<1x64x112x112xf32>
    %alloc_7 = memref.alloc() {alignment = 64 : i64} : memref<1x64x114x114xf32>
    affine.for %arg1 = 0 to 1 {
      affine.for %arg2 = 0 to 64 {
        affine.for %arg3 = 0 to 114 step 6 {
            affine.for %arg4 = #map(%arg3) to #map4(%arg3) {
              affine.for %arg5 = 0 to 114 {
                affine.store %cst_0, %alloc_7[%arg1, %arg2, %arg4, %arg5] : memref<1x64x114x114xf32>
              }
            }
        }
      }
    }
    memref.dealloc %alloc_7 : memref<1x64x114x114xf32>
    %alloc_8 = memref.alloc() {alignment = 64 : i64} : memref<1x64x114x114xf32>
    memref.copy %alloc_7, %alloc_8 : memref<1x64x114x114xf32> to memref<1x64x114x114xf32>
    %subview_9 = memref.subview %alloc_8[0, 0, 1, 1] [1, 64, 112, 112] [1, 1, 1, 1] : memref<1x64x114x114xf32> to memref<1x64x112x112xf32, strided<[831744, 12996, 114, 1], offset: 115>>
    memref.copy %alloc_6, %subview_9 : memref<1x64x112x112xf32> to memref<1x64x112x112xf32, strided<[831744, 12996, 114, 1], offset: 115>>
    %alloc_10 = memref.alloc() {alignment = 64 : i64} : memref<1x64x56x56xf32>
    affine.for %arg1 = 0 to 1 {
      affine.for %arg2 = 0 to 64 {
        affine.for %arg3 = 0 to 56 step 28 {
            affine.for %arg4 = #map(%arg3) to #map5(%arg3) {
              affine.for %arg5 = 0 to 56 {
                affine.store %cst_0, %alloc_10[%arg1, %arg2, %arg4, %arg5] : memref<1x64x56x56xf32>
              }
            }
        }
      }
    }
    %alloc_11 = memref.alloc() {alignment = 64 : i64} : memref<1x64x56x56xf32>
    memref.copy %alloc_10, %alloc_11 : memref<1x64x56x56xf32> to memref<1x64x56x56xf32>
    memref.dealloc %alloc_10 : memref<1x64x56x56xf32>
    affine.for %arg1 = 0 to 1 {
      affine.for %arg2 = 0 to 64 {
        affine.for %arg3 = 0 to 56 step 4 {
          FDRA.kernel {
            affine.for %arg4 = #map(%arg3) to #map6(%arg3) {
              affine.for %arg5 = 0 to 56 {
                %5 = affine.load %alloc_11[%arg1, %arg2, %arg4, %arg5] : memref<1x64x56x56xf32>
                %6 = affine.for %arg6 = 0 to 3 iter_args(%arg7 = %5) -> (f32) {
                  %7 = affine.for %arg8 = 0 to 3 iter_args(%arg9 = %arg7) -> (f32) {
                    %8 = affine.load %alloc_8[%arg1, %arg2, %arg4 * 2 + %arg6, %arg5 * 2 + %arg8] : memref<1x64x114x114xf32>
                    %9 = arith.cmpf ugt, %arg9, %8 : f32
                    %10 = arith.select %9, %arg9, %8 : f32
                    affine.yield %10 : f32
                  }
                  affine.yield %7 : f32
                }
                affine.store %6, %alloc_11[%arg1, %arg2, %arg4, %arg5] : memref<1x64x56x56xf32>
              }
            }
            FDRA.terminator
          }
        }
      }
    }
    memref.dealloc %alloc_11 : memref<1x64x56x56xf32>
    return %alloc_11 : memref<1x64x56x56xf32>
  }
}

